/**
  ******************************************************************************
  * @file    tflite_model_data_params.c
  * @author  AST Embedded Analytics Research Platform
  * @date    2025-02-07T15:37:54-0800
  * @brief   AI Tool Automatic Code Generator for Embedded NN computing
  ******************************************************************************
  * Copyright (c) 2025 STMicroelectronics.
  * All rights reserved.
  *
  * This software is licensed under terms that can be found in the LICENSE file
  * in the root directory of this software component.
  * If no LICENSE file comes with this software, it is provided AS-IS.
  ******************************************************************************
  */

#include "tflite_model_data_params.h"


/**  Activations Section  ****************************************************/
ai_handle g_tflite_model_activations_table[1 + 2] = {
  AI_HANDLE_PTR(AI_MAGIC_MARKER),
  AI_HANDLE_PTR(NULL),
  AI_HANDLE_PTR(AI_MAGIC_MARKER),
};




/**  Weights Section  ********************************************************/
AI_ALIGNED(32)
const ai_u64 s_tflite_model_weights_array_u64[8385] = {
  0x3d9750763dc623beU, 0x3eed5fe1bec2af58U, 0x3d7b4cf8bd0c9360U, 0xba48725abc71f19bU,
  0x3c608131bd4da27cU, 0xbcb78447bc87608aU, 0x3c9f7c5e3e239801U, 0xbe2d2cd03d6c8a9eU,
  0x3d48583fbbb8a218U, 0xbd521ca03ceda239U, 0x3e416057be59e928U, 0x3e25635cbe62d78dU,
  0xbbbc1885bbdb50b8U, 0xbd9d22b93e242af3U, 0x3d8d927ebd03a4d0U, 0xbcd359503db51c35U,
  0xbbb78d223c121497U, 0x3a7134b8bda8ff2dU, 0xbe867f123e9dfc5bU, 0xbe805d193ea39f39U,
  0x3e27b4fbbe3787d4U, 0xbe11e24f3e6f51feU, 0xbe7006fd3e442b54U, 0x3d81e352be886c9eU,
  0xbe1ab4503e694c06U, 0xbd1e675a3d9c17b9U, 0xbd8109cdbdb6facfU, 0xbe5c6c923e6b5ddaU,
  0xbe3a1e133e2e93b0U, 0x3db8493bbde397b0U, 0x3c97f457bc971ae2U, 0x3e9f2f09beb1f12dU,
  0x3e665514be225d4bU, 0x3e83079cbe036c8cU, 0xbdfa92f1bce02400U, 0x3cae9f9bbd83d1abU,
  0x3e8dd12ebe735d97U, 0xbe0fbee8bd8d6247U, 0xbc3da9543d3ae9e3U, 0x3dc01626bd0a8a13U,
  0x3cd4e6f13cd7bc9bU, 0xbe1a19103e31eaa8U, 0xbd65c2ea3d6b5a5dU, 0x3d8ce038bc6e887eU,
  0xbe3bf4e23e5e372aU, 0x3e47fb2ebd5455b5U, 0xbd27eba83e0b3118U, 0xbe47db96bbbd5083U,
  0x3e644725be12f109U, 0xbe21013c3e89a7f1U, 0x3e1476873cba36edU, 0x3dd87d8cbe3aa46fU,
  0x3dcc8368bd8804c4U, 0x3953274ebd2cf670U, 0x3e62e573bde0a432U, 0xbea002953eb4d557U,
  0x3beb4f11bd9b9807U, 0x3e286e57bd025975U, 0xbaa406f73dffa167U, 0xbe436c6a3e5ce67fU,
  0x3ccb0e24bd452137U, 0xbea573503e4f8f06U, 0xbbbbbaf8bd3ef608U, 0x3e124cc3bd93b0ceU,
  0xbece2eaa3e9dfd57U, 0xbbd1ca2bbd9482f3U, 0x3e0d9521bdb36130U, 0xbd4aa5dc3e0d4cf7U,
  0x3eabbad4be73563fU, 0x3c85bb063f159c06U, 0x3d4a0fc7be08e1a3U, 0xbd5a3269bd774ab3U,
  0x3e5a05303e3507c4U, 0x3dab5776be81a281U, 0xbc7ece92be98ea14U, 0xbbb17e1a3e4bb6b8U,
  0x3e82354b3dd06319U, 0x3f0303f3bd8d5e32U, 0x3d402a273e6f77bdU, 0xbd8232873d42f87aU,
  0xbc897a8a00000000U, 0xbd374e0dbd897a8aU, 0x3d897a8a3db74e0dU, 0x3e14ef6b3d20644bU,
  0x3db74e0d3d20644bU, 0xbd94ef6bbdce37cfU, 0xbdb74e0dU, 0xbe7c0b52bd4e37cfU,
  0x3dfc0b523d4e37cfU, 0x3d94ef6bbdb74e0dU, 0x3d4e37cf3e14ef6bU, 0x3cb74e0dbc374e0dU,
  0xbe0f34fa3d097a8aU, 0x3d374e0dbdfc0b52U, 0x3e20644b3d897a8aU, 0x3e487d5e3e31939dU,
  0x3e59acaf3ce52190U, 0x3dce37cfbdfc0b52U, 0x3dc2c2ee3d897a8aU, 0xbc897a8abd097a8aU,
  0xbed6cf77be53f23fU, 0xbd4e37cfbd097a8aU, 0xbd7c0b523e80e2e1U, 0xbe59acafbf35df71U,
  0xbe487d5ebdce37cfU, 0xbe097a8abeedb939U, 0x3e1aa9db3c897a8aU, 0xbe94ef6b3d4e37cfU,
  0x3d374e0d3d374e0dU, 0xbd6521903d7c0b52U, 0x3d7c0b523bb74e0dU, 0x3c897a8abe097a8aU,
  0xbd4e37cfbe097a8aU, 0xbbb74e0d3dd9acafU, 0xbe097a8a3ce52190U, 0xbe80e2e1bc897a8aU,
  0x3de52190be709671U, 0x3c897a8a00000000U, 0x3d4e37cf3e1aa9dbU, 0xbe03c0193e7c0b52U,
  0x3e4e37cfbe261ebcU, 0x3e53f23fbc374e0dU, 0xbdc2c2eebe14ef6bU, 0xbc897a8a3e261ebcU,
  0xbde52190be14ef6bU, 0x3db74e0d3dd9acafU, 0x3d20644b3e1aa9dbU, 0x3e374e0d3e20644bU,
  0x3d4e37cfbe20644bU, 0x3c897a8a3dce37cfU, 0xbdb74e0d3e94ef6bU, 0x3d4e37cf3e59acafU,
  0xbeb74e0dbdd9acafU, 0x3d097a8a3d20644bU, 0x3d652190bebd087dU, 0xbd097a8abe7650e1U,
  0x3d20644bbdce37cfU, 0x3e8c57c2be261ebcU, 0xbe80e2e13ee7fec8U, 0x3ce52190bd20644bU,
  0xbcb74e0d3e20644bU, 0xbdd9acaf3da0644bU, 0x3d097a8a3e59acafU, 0x3e31939d3cb74e0dU,
  0x3e3fcf2c3dac3ca5U, 0xbbfa86c13cfa86c1U, 0x3e8cebcd3ddb35e9U, 0x3dbbe5113e47a362U,
  0xbd2c3ca53df2b28bU, 0x3d9c94393b7a86c1U, 0x3d9c94393e8af6bfU, 0xbd2c3ca5bbfa86c1U,
  0xbc9c9439bc9c9439U, 0x3c3be511be66f43aU, 0x3d8cebcd3e012d7cU, 0xbcfa86c1bc3be511U,
  0x3cdb35e9bcfa86c1U, 0xbdc3b947be6ade55U, 0x3dd361b33d1c9439U, 0x3d3be511bcdb35e9U,
  0xbe3026c0bdbbe511U, 0x3dfa86c1be3410dbU, 0xbeb7faf63ddb35e9U, 0x3d1c9439U,
  0x3d6ade553eac3ca5U, 0x3d1c943900000000U, 0xbe14c003U, 0x3dbbe5113e6ec870U,
  0xbe207e54bdbbe511U, 0xbd8517973e8ee0daU, 0xbdeade553df2b28bU, 0x3e18aa1ebc9c9439U,
  0xbd3be5113db410dbU, 0xbdcb8d7d3e574bceU, 0xbd0cebcdbde30a1fU, 0xbc3be511bb7a86c1U,
  0x3e0cebcdbe3026c0U, 0x3dbbe5113e0901b2U, 0xbddb35e93e24686fU, 0x3d2c3ca5be8901b2U,
  0xbec5ae543d2c3ca5U, 0x3d8cebcdbe0901b2U, 0xbe43b9473ee30a1fU, 0xbd94c0033e8ee0daU,
  0x3c9c9439be98aa1eU, 0xbd4b8d7dbd3be511U, 0x3df2b28b3ef891b3U, 0xbd851797be3410dbU,
  0xbe24686fbe24686fU, 0xbeb026c0bc9c9439U, 0x3e574bce3e207e54U, 0x3ec7a362be37faf6U,
  0x3d2c3ca5bd2c3ca5U, 0xbbfa86c1bb7a86c1U, 0x3ddb35e9bdbbe511U, 0x3dcb8d7d3e5f2004U,
  0xbee8e947bc9c9439U, 0xbe4f77983e0cebcdU, 0xbdb410db3c7a86c1U, 0xbd6ade553e851797U,
  0x3d3be5113ddb35e9U, 0x3deade553d2c3ca5U, 0xbdac3ca5bd9c9439U, 0xbdeade553dfa86c1U,
  0xbda4686f3e24686fU, 0x3e3be5113c9c9439U, 0xbe3026c03e207e54U, 0x3eaa4797be8af6bfU,
  0xbd0cfbcb3d8cfbcbU, 0x3deaf8fd3d98bb71U, 0xbe9bab5b3e247b18U, 0xbd247b18bef0d8d0U,
  0x3d0cfbcb3e12db9eU, 0x3df6b8a3be70d8d0U, 0xbebbfa643e247b18U, 0x3d5379b03e18bb71U,
  0xbed089c7bdbbfa64U, 0xbe41da373e013c25U, 0x3d813c25bd5379b0U, 0x3e013c25be303abeU,
  0x3e41da37bd3bfa64U, 0x3d8cfbcbbddf3957U, 0xbe6af8fdbbbbfa64U, 0xbed6699a3deaf8fdU,
  0xbe6af8fd3d8cfbcbU, 0xbd98bb71be013c25U, 0xbeb61a91be5379b0U, 0x3d247b183d813c25U,
  0x3d6af8fd3e871bf8U, 0x3dbbfa643c3bfa64U, 0x3d98bb71bd247b18U, 0xbc8cfbcb3d6af8fdU,
  0xbdb03abebe8cfbcbU, 0x3deaf8fdbdf6b8a3U, 0x3e12db9ebed089c7U, 0xbddf39573bbbfa64U,
  0x3e071bf8bddf3957U, 0xbe8cfbcb00000000U, 0x3d0cfbcb3e071bf8U, 0x3e98bb71be1e9b44U,
  0xbd247b183e3bfa64U, 0x3e2a5aebbd247b18U, 0x3c8cfbcbbea47b18U, 0xbeb03abe3e013c25U,
  0x3e247b183cbbfa64U, 0x3dc7ba0a3ceaf8fdU, 0x3dd379b0bda47b18U, 0x3deaf8fd3d3bfa64U,
  0x3cbbfa64bec7ba0aU, 0xbdbbfa643c8cfbcbU, 0xbc8cfbcb3e871bf8U, 0xbd6af8fdbd98bb71U,
  0x3e842c0ebeb90a7aU, 0x3e47ba0a3d6af8fdU, 0x3deaf8fdbdb03abeU, 0xbdc7ba0a3d6af8fdU,
  0xbdc7ba0a3e361a91U, 0xbdd379b0bd0cfbcbU, 0xbdbbfa64bceaf8fdU, 0xbddf3957bdbbfa64U,
  0xbceaf8fd3ceaf8fdU, 0xbe9e9b443d98bb71U, 0x3e12db9ebe12db9eU, 0xbd8cfbcbbe1e9b44U,
  0x3c8cfbcbbe2a5aebU, 0xbe8cfbcb3e47ba0aU, 0x3c3bfa643d247b18U, 0xbc3bfa64bc3bfa64U,
  0x3e595984be95cb88U, 0xbd247b183dbbfa64U, 0xbe247b18bda47b18U, 0xbf3a826f3e5379b0U,
  0xbe4e45cd3da504a4U, 0x3de2e662bded36acU, 0xbf16d63ebe1ab45aU, 0xbe0613c5bdaf54eeU,
  0xbdf786f6bd7786f6U, 0x3e6d36acbe0613c5U, 0xbdaf54eebec16170U, 0x3df786f6bea504a4U,
  0x3ba504a43c2504a4U, 0xbd9ab45abca504a4U, 0xbd906410be906410U, 0x3d8613c5bdaf54eeU,
  0xbd4e45cd3e7786f6U, 0x3e491da8beb1e901U, 0x3c7786f6be2a2cc9U, 0xbe9ab45a3e8b3beaU,
  0xbe2f54ee00000000U, 0x3e491da800000000U, 0xbee80e873d7786f6U, 0x3c2504a4bda504a4U,
  0xbe8613c5be2504a4U, 0x3e982047be2f54eeU, 0xbcf786f6bece45cdU, 0x3cf786f63cce45cdU,
  0x3e43f583bdaf54eeU, 0x3c7786f6be92f822U, 0xbd1064103eacc0dcU, 0xbe0613c5befa1b09U,
  0xbde2e6623e6d36acU, 0x3e8b3beabe9fdc7fU, 0x3e5896173cf786f6U, 0x3d2504a43cf786f6U,
  0xbe5896173d39a538U, 0xbd8613c53e2a2cc9U, 0xbd906410bec16170U, 0xbe0613c53e2f54eeU,
  0xbefa1b09be589617U, 0xbd9064103e347d13U, 0xbdf786f6bd62e662U, 0xbd8613c53e0b3beaU,
  0x3ec16170be62e662U, 0x3ded36ac3df786f6U, 0x3ea504a4bf23ba9bU, 0xbe1ab45a3e6d36acU,
  0xbdd89617be589617U, 0xbc2504a43e5dbe3cU, 0xbe6d36ac3dce45cdU, 0xbba504a4bc7786f6U,
  0xbd2504a4be0b3beaU, 0x3e9ab45abed89617U, 0xbd9ab45abe6d36acU, 0x3e2f54eebdce45cdU,
  0xbe958c35becbb1baU, 0xbd2504a43e92f822U, 0xbe8b3beabe106410U, 0xbe2f54ee3d906410U,
  0x3e2504a43e2a2cc9U, 0xbd4e45cd3d906410U, 0xbe80eba0be3ecd5eU, 0x3e491da8bdc3f583U,
  0xbcf786f63f04c9bcU, 0x3eb47d133e4e45cdU, 0x3e491da83e1ab45aU, 0x3e589617be958c35U,
  0x3dc5b4f0beb74a69U, 0xbe9a755b3ca4c172U, 0xbe2cfe523e0c0ad4U, 0x3c45b4f03d83cdf5U,
  0xbdbd7810be45b4f0U, 0x3deee54cbe353b31U, 0x3d353b31be83cdf5U, 0xbdf7222b3d9447b4U,
  0x3e3d7810bc03cdf5U, 0x3e83cdf53dcdf1cfU, 0xbe1029443d83cdf5U, 0xbdacfe523e03cdf5U,
  0xbdf7222b3e03cdf5U, 0x3dcdf1cf3dbd7810U, 0x3d1447b43e85dd2dU, 0x3de6a86dbe8c0ad4U,
  0x3e102944be102944U, 0x3e03cdf5be186623U, 0xbce6a86d3d9447b4U, 0x3c45b4f03d8c0ad4U,
  0x3dff5f0bbeb959a1U, 0xbe3959a13e2cfe52U, 0xbce6a86d00000000U, 0xbd77222bbda4c172U,
  0x3dbd7810bb83cdf5U, 0x3e311cc1bde6a86dU, 0xbdde6b8d3dff5f0bU, 0xbd8c0ad4be3959a1U,
  0x3d03cdf5bcc5b4f0U, 0x3ca4c1723d9c8493U, 0x3cc5b4f03d24c172U, 0xbd9447b4be45b4f0U,
  0xbd24c1723e20a303U, 0x3eacfe52bdacfe52U, 0xbec7c4273d77222bU, 0xbe20a303be186623U,
  0xbdacfe52be9a755bU, 0x3eacfe523d45b4f0U, 0xbda4c172be1447b4U, 0x3dbd7810be419680U,
  0x3e3959a1bdde6b8dU, 0xbee8b7a5be1c8493U, 0xbe45b4f03e89fb9cU, 0x3e6ee54cbed2103eU,
  0x3ea8dfe23e45b4f0U, 0x3e49d35fbe419680U, 0x3d9c8493be07ec65U, 0xbecbe2973ce6a86dU,
  0x3ca4c1723d24c172U, 0x3e4df1cfbe186623U, 0xbdbd7810bdacfe52U, 0xbe6289fdbe562eaeU,
  0xbe85dd2dbf02c659U, 0x3d353b31be3d7810U, 0xbe7f5f0bbed83de6U, 0xbea4c172bea2b23aU,
  0xbdbd7810bdeee54cU, 0xbda4c1723d03cdf5U, 0xbe353b31bd45b4f0U, 0x3df7222bbdf7222bU,
  0x3dff5f0b3ea6d0aaU, 0xbc45b4f03d03cdf5U, 0x3dff5f0bU, 0xbe562eae3c83cdf5U,
  0x3dd98c96bc286cd7U, 0x3c8c5ab3be286cd7U, 0xbeb675e93d447efbU, 0xbe60911fbde795a8U,
  0x3e759ebabeb8370bU, 0xbcc47efbbe135f3cU, 0xbdee9a313d447efbU, 0xbebf3b943d447efbU,
  0xbe8012c43e3d7a72U, 0xbd9a63c5bdc47efbU, 0xbc8c5ab3bdcb8384U, 0xbb60911fbcfca343U,
  0xbd6e9a31be3675e9U, 0xbce0911fbe2bef1cU, 0x3dcb83843dbd7a72U, 0xbd85562abd8c5ab3U,
  0xbe935f3cbb60911fU, 0x3da1684e3ce0911fU, 0x3e1a63c5bea4ea93U, 0xbe4f05c93d9a63c5U,
  0xbd6e9a31be0c5ab3U, 0xbce0911f3e447efbU, 0xbdfca3433d60911fU, 0x3e759ebabdfca343U,
  0xbe8c5ab3bdb675e9U, 0x3d9a63c5bd1a63c5U, 0x3be0911fbe8a9991U, 0x3e4b83843d8c5ab3U,
  0xbe32f3a53cc47efbU, 0xbd3675e9be60911fU, 0xbdf59eba3dc47efbU, 0xbd8c5ab33d0c5ab3U,
  0x3d8c5ab3bdb675e9U, 0xbd9a63c5be9c24e8U, 0xbe96e1813c8c5ab3U, 0xbeabef1c3d935f3cU,
  0xbdbd7a72be8c5ab3U, 0xbdd98c96bd6e9a31U, 0x3de795a8bde795a8U, 0xbe96e1813d3675e9U,
  0xbdfca343bca86cd7U, 0x3d85562abea86cd7U, 0x3e08d86fbd85562aU, 0x3d3675e93cc47efbU,
  0x3e135f3c3e598c96U, 0x3c60911fbec2bdd9U, 0x3e0c5ab3bc8c5ab3U, 0xbe4f05c93e2f7160U,
  0x3e08d86f3d286cd7U, 0x3dfca3433e81d3e6U, 0xbe21684ebdf59ebaU, 0x3c286cd73d3675e9U,
  0x3eaf7160bed2880dU, 0x3e0c5ab3be0c5ab3U, 0x3e39f82ebe6b17ecU, 0xbe9a63c53e9c24e8U,
  0x3e135f3c3d85562aU, 0x3d52880dbe39f82eU, 0xbdd98c96bedecffdU, 0xbd3675e9bca86cd7U,
  0x3e0fdcf8bd60911fU, 0xbcc47efbbd6e9a31U, 0xbe4f05c93e39f82eU, 0xbb60911f3da1684eU,
  0xbf0207163cc9fc18U, 0xbe5e2ee8bdb5c949U, 0x3c7261b7be92705fU, 0xbc21967a3e30bc95U,
  0xbd5e2ee83d21967aU, 0x3e21967a3ea6a32eU, 0xbe44ef65be3fe2b1U, 0x3ec4ef653e68484fU,
  0xbebfe2b1bd7261b7U, 0x3e30bc953d977d12U, 0x3c7261b7bf20534dU, 0xbe30bc953dbfe2b1U,
  0xbde8484fbd35c949U, 0x3da1967abe30bc95U, 0xbef76e6bbdb5c949U, 0xbd7261b7be633b9cU,
  0x3de8484fbdabafe2U, 0x3e68484fbdc9fc18U, 0xbc21967a3e92705fU, 0xbcc9fc183de8484fU,
  0xbe80c3e93e0856f7U, 0xbe8856f7be0d63abU, 0x3cc9fc18be977d12U, 0xbd5e2ee8bf0c207eU,
  0xbe3fe2b1bc21967aU, 0xbe1c89c6be4f08ccU, 0xbd35c9493d35c949U, 0x3e177d12be2bafe2U,
  0x3e6d55033e4f08ccU, 0x3e5e2ee8bd49fc18U, 0xbe3ad5fd3ca1967aU, 0xbe80c3e93cf261b7U,
  0xbdbfe2b1be0d63abU, 0x3d21967a3ede2ee8U, 0x3d35c949bd35c949U, 0xbe0856f7bdf261b7U,
  0x3e9c89c63e4f08ccU, 0x3e30bc953e12705fU, 0x3e30bc953cc9fc18U, 0x3e776e6b3dd41580U,
  0x3ea6a32ebe633b9cU, 0x3c21967a3da1967aU, 0xbe776e6bbede2ee8U, 0x3dd41580bdb5c949U,
  0xbdde2ee83d35c949U, 0x3df261b7be977d12U, 0x3d834a43bd0d63abU, 0x3d0d63ab3ea6a32eU,
  0xbeb0bc95bdc9fc18U, 0xbea6a32e3e12705fU, 0x3e0d63abbebad5fdU, 0xbe9c89c6bd21967aU,
  0xbef261b7be44ef65U, 0xbba1967a3e0856f7U, 0x3da1967abf13b38cU, 0x3df261b73e35c949U,
  0x3dbfe2b1be9c89c6U, 0xbebfe2b13dc9fc18U, 0xbe85d09dbe35c949U, 0xbdbfe2b1beefdb5dU,
  0xbdf261b7bd5e2ee8U, 0x3d35c949bdfc7b1fU, 0xbebd5c57be35c949U, 0xbeb342efbcf261b7U,
  0xbdd2e527bda8b752U, 0xbeb342c83d44d5e0U, 0x3d9aa80cbee47840U, 0xbd8c98c53dd2e527U,
  0x3e0591213d9aa80cU, 0x3dc4d5e03ea53381U, 0x3def03b53e9aa80cU, 0x3e97243abce0f46eU,
  0x3d0c98c5be21afafU, 0x3dd2e527bde0f46eU, 0x3e820d50be9aa80cU, 0x3eba4a6b3ef60b58U,
  0xbe4bdd84bef28787U, 0x3d9aa80cbe13a068U, 0xbe901c96bd7d12fcU, 0xbe7d12fc3f1c69f4U,
  0xbd44d5e0be3dce3dU, 0xbeba4a6b3de0f46eU, 0x3dc4d5e0be059121U, 0xbd28b752be059121U,
  0xbbe0f46e3ea8b752U, 0x3e28b752be3dce3dU, 0xbbe0f46ebe2fbef6U, 0x3e2fbef6bdb6c699U,
  0x3e0591213eac3b24U, 0x3ce0f46ebd60f46eU, 0xbde0f46ebe59eccbU, 0x3dfd12fcU,
  0xbdfd12fc3e2fbef6U, 0x3eb342c83e0c98c5U, 0xbe93a068bd44d5e0U, 0xbe97243a3e3dce3dU,
  0xbe97243a3ef60b58U, 0xbecbdd84bdef03b5U, 0x3e8914f3bd7d12fcU, 0x3ca8b7523ee7fc11U,
  0x3eef03b5be901c96U, 0x3ed668f93f1e2bddU, 0x3e93a068be52e527U, 0x3ed9eccb3ecbdd84U,
  0x3e97243a3eb342c8U, 0x3e820d50be8914f3U, 0x3e4bdd84be8c98c5U, 0xbe67fc113e7d12fcU,
  0x3ea8b7523ea1afafU, 0x3f1fedc6be6f03b5U, 0xbe6f03b53ef98f2aU, 0xbdef03b53d0c98c5U,
  0x3be0f46ebde0f46eU, 0xbf020d503f17243aU, 0xbda8b752be67fc11U, 0x3d60f46e3f1fedc6U,
  0x3f5baeb3be8c98c5U, 0x3d60f46e3ec1520fU, 0x3f5f3285bed2e527U, 0xbf3180df3e8914f3U,
  0x3f1c69f4bd8c98c5U, 0x3ec1520fbe859121U, 0x3d9aa80cbec1520fU, 0xbe859121bd28b752U,
  0xbca8b7523e2fbef6U, 0x3f2fbef6bdc4d5e0U, 0xbc60f46e3ed668f9U, 0xbec1520f3edd709cU,
  0xbd990daabe4fb71eU, 0x3d5aa5cfbe190daaU, 0x3e23fc5b3d2eeb0cU, 0x3cdaa5cf3e190daaU,
  0xbedaa5cf3e4a3fc6U, 0xbe552e773e44c86eU, 0x3dcfb71ebe708330U, 0xbecfb71ebe8e1efaU,
  0x3da3fc5b3e0e1efaU, 0xbd2eeb0cbd5aa5cfU, 0xbf05ebf5be75fa89U, 0xbda3fc5bbe708330U,
  0x3d708330bea140afU, 0xbe833049bd833049U, 0xbd5aa5cf3c833049U, 0x3d990daabe1e8503U,
  0xbe9651fe3da3fc5bU, 0x3e1e8503be033049U, 0xbea3fc5bbdaeeb0cU, 0xbc833049bcaeeb0cU,
  0xbe85ebf53eaeeb0cU, 0x3d708330bdb9d9bdU, 0xbd5aa5cfbee2d8d4U, 0xbe7083303e833049U,
  0xbe1e8503be88a7a1U, 0x3d990daabcaeeb0cU, 0xbe3462643d990daaU, 0x3d708330bd44c86eU,
  0x3caeeb0cbe0e1efaU, 0x3de594803db9d9bdU, 0xbd2eeb0c3d8e1efaU, 0x3d833049bc833049U,
  0x3d2eeb0cbdf08330U, 0x3eb462643dfb71e1U, 0xbe2973b4bd990daaU, 0x3d8e1efa3ea6b807U,
  0x3df083303e90daa6U, 0x3e3f51153c2eeb0cU, 0xbe44c86ebd2eeb0cU, 0x3ee8502cbf08a7a1U,
  0x3daeeb0c3e552e77U, 0xbcaeeb0cbe8b634eU, 0x3d990daa3e601d27U, 0x3edaa5cfbd033049U,
  0xbdfb71e13e8e1efaU, 0xbdc4c86ebdb9d9bdU, 0x3ea3fc5b3e39d9bdU, 0xbe9e8503bdf08330U,
  0x3caeeb0c3d5aa5cfU, 0xbe3462643e346264U, 0xbddaa5cfbe6b0bd8U, 0xbe990daabee2d8d4U,
  0x3e8b634e3d190daaU, 0x3e88a7a1be1e8503U, 0xbdaeeb0c3cdaa5cfU, 0x3f2d8d363d8e1efaU,
  0x3dc4c86ebdf08330U, 0xbe601d27befb71e1U, 0x3de59480bf0f7cd0U, 0x3d190daa3e033049U,
  0x3d033049bd033049U, 0xbe4a3fc6befb71e1U, 0x3e75fa89be190daaU, 0xbe90daa6bea6b807U,
  0x3e2e58c1bcecd92dU, 0xbdfa01b03d039519U, 0xbda47a5fbd2b0ea0U, 0x3d528828be1407bcU,
  0xbe736d6e3d9751ddU, 0x3e3b8144bcecd92dU, 0xbe0d737b3e421585U, 0xbd455fa63b528828U,
  0x3b528828be2e58c1U, 0xbe2e58c1bd839519U, 0x3e3b81443eb9dc33U, 0xbd9de61e00000000U,
  0xbea2d54f3e421585U, 0x3db83723be7a01b0U, 0x3e10bd9cbddfb0aaU, 0x3e27c480bcb83723U,
  0x3e8a295abdcbf3e7U, 0xbd90bd9c3cb83723U, 0xbe4bf3e73e4f3e07U, 0x3e06df3abd7a01b0U,
  0xbecd98f7be27c480U, 0x3e1407bcbde644ecU, 0xbcb83723be31a2e2U, 0x3d9751dd3e95acccU,
  0x3cecd92dbde644ecU, 0x3df36d6e3e421585U, 0x3db1a2e23ed0e318U, 0xbc9de61e3c1de61eU,
  0xbe0d737b3e247a5fU, 0xbb5288283d528828U, 0x3eb83723bcd28828U, 0x3e90bd9cbdc55fa6U,
  0x3d8395193bd28828U, 0xbdfa01b03d9751ddU, 0xbe5fb0aabd528828U, 0xbc528828bebd2654U,
  0x3e10bd9c3ea7c480U, 0x3bd28828be6cd92dU, 0xbd8395193dd28828U, 0x3dc55fa63e528828U,
  0x3e0395193d528828U, 0xbe455fa63d839519U, 0x3e7a01b0be95acccU, 0x3e34ed023e9262acU,
  0x3dbecb643e5fb0aaU, 0xbe0d737b3cecd92dU, 0x3e1de61ebd839519U, 0xbe5c668a3cecd92dU,
  0x3e2e58c13e421585U, 0xbe48a9c63ddfb0aaU, 0xbe21303f3da47a5fU, 0x3ddfb0aabc9de61eU,
  0x3d1de61ebd039519U, 0xbd8a295abe48a9c6U, 0xbe0a295a3e528828U, 0x3e1a9bfd3e736d6eU,
  0x3d1de61e3de644ecU, 0xbcd28828bcecd92dU, 0x3e5c668abdf36d6eU, 0xbd8a295a3e5c668aU,
  0x3d3837233db1a2e2U, 0x3d5288283e8bce6bU, 0xbd2b0ea0be2e58c1U, 0xbe804af8bda47a5fU,
  0xbd1091283be74ea7U, 0xbd674ea7be2d7afdU, 0xbd10912800000000U, 0xbd821c3eU,
  0x3dad7afd3e75c391U, 0x3ea9ddc3bdca64d2U, 0xbd1091283e0956b3U, 0xbe4a64d2bd2d7afdU,
  0xbe3befe8be2d7afdU, 0x3c674ea7bdf5c391U, 0xbbe74ea73d821c3eU, 0x3e0956b33e264088U,
  0x3d909128be2d7afdU, 0xbd909128bcad7afdU, 0xbd674ea73d4a64d2U, 0xbbe74ea73c674ea7U,
  0x3e1091283e519f47U, 0x3d1091283dca64d2U, 0xbe1091283e909128U, 0x3ce74ea73d4a64d2U,
  0xbdd8d9bd3dca64d2U, 0xbe6e891cbf0956b3U, 0xbd821c3e3e0956b3U, 0xbce74ea73e9b68d8U,
  0x3d674ea7bdad7afdU, 0x3e7cfe073e34b572U, 0x3e34b5723e909128U, 0xbc674ea73dd8d9bdU,
  0x3e6014323d9f0613U, 0xbd4a64d23dbbefe8U, 0x3e17cb9e3e601432U, 0x3e821c3ebf004da1U,
  0xbee01432be75c391U, 0x3c674ea7bdca64d2U, 0xbf1091283be74ea7U, 0xbdd8d9bdbdca64d2U,
  0xbdd8d9bd3dad7afdU, 0xbe021c3ebece020dU, 0x3e109128bead7afdU, 0xbc674ea73e85b979U,
  0xbce74ea7beee891cU, 0x3d1091283e8cf3eeU, 0xbe1f0613be17cb9eU, 0x3d1091283e942e63U,
  0xbe519f47bef5c391U, 0xbe6e891c3e7cfe07U, 0xbe909128be8cf3eeU, 0x3d9091283de74ea7U,
  0xbe1f06133e4a64d2U, 0x3df5c3913e1f0613U, 0xbf0cf3eebdca64d2U, 0x3f021c3e3ebf8d22U,
  0xbf65800a3ce74ea7U, 0xbe2d7afd3c674ea7U, 0x3ce74ea7bea9ddc3U, 0xbdd8d9bd3e9b68d8U,
  0xbdbbefe8bf15fd00U, 0x3ed8d9bd3ece020dU, 0xbe75c391be021c3eU, 0x3e821c3e3e264088U,
  0x3dbbefe8bebf8d22U, 0xbf17cb9e3e58d9bdU, 0xbf34b5723e2d7afdU, 0x3dbbefe83e909128U,
  0x3d347c60be488a32U, 0xbe2a75773ebc018eU, 0x3cf0a5d53d70a5d5U, 0x3de69eecbdc88a32U,
  0xbe397fd43e619b78U, 0xbdb47c60be93e5ebU, 0xbde69eec3e075d48U, 0xbcc88a323dd2911aU,
  0xbd0c60bcbd206e8eU, 0x3e075d483d5c9803U, 0xbd347c603e669eecU, 0xbe1667a53e488a32U,
  0xbd5c9803be7fb032U, 0xbe488a323e1667a5U, 0xbea7f3bdbca06e8eU, 0x3e4386bd3de69eecU,
  0x3dc88a32bca06e8eU, 0x3ddc98033da06e8eU, 0x3e52911a3e84db8eU, 0x3ba06e8e3c70a5d5U,
  0xbdf0a5d5U, 0xbe075d48beb1faa6U, 0xbe3e83493e397fd4U, 0xbd9667a53e397fd4U,
  0x3d8c60bcbdaa7577U, 0x3d9667a53db47c60U, 0xbe1b6b1a3da06e8eU, 0xbddc98033ddc9803U,
  0x3d0c60bc3d488a32U, 0xbd347c603e7aacbeU, 0xbd0c60bc3ba06e8eU, 0x3ea06e8e3dd2911aU,
  0xbde69eec3e875d48U, 0x3d206e8e3e619b78U, 0xbdb47c60be116431U, 0xbe93e5ebbef0a5d5U,
  0xbefd2e783e669eecU, 0xbd8259d33cc88a32U, 0x3cc88a32beb47c60U, 0x3ea57202be0259d3U,
  0x3e669eecbe1667a5U, 0xbf1f2db13de69eecU, 0xbe2f78ebbe669eecU, 0xbd0c60bcbeda1649U,
  0x3cf0a5d53e0259d3U, 0xbe57948f3e75a949U, 0xbde69eecbf039ab0U, 0xbecb0bec3dbe8349U,
  0xbe57948f3e84db8eU, 0x3e397fd43dbe8349U, 0xbe98e95f3dfaacbeU, 0x3da06e8ebdfaacbeU,
  0xbe4386bdbd347c60U, 0xbe116431bd206e8eU, 0x3dfaacbebe98e95fU, 0x3d488a323e8c60bcU,
  0x3e2a75773c70a5d5U, 0x3dc88a323eacf731U, 0xbda06e8ebdb47c60U, 0x3ba06e8ebd8259d3U,
  0x3dfaacbe3e116431U, 0xbdfaacbe3e2a7577U, 0xbc70a5d53dfaacbeU, 0xbe1164313e4386bdU,
  0xbd6484193e75a79bU, 0x3e91add0be9ff612U, 0x3dfb5e1c3d1ff612U, 0xbe03658ebe311993U,
  0x3dfb5e1cbe75a79bU, 0x3d891c0f3d1ff612U, 0xbe808a4e3d7b5e1cU, 0x3e9a3f913deff11aU,
  0xbe9ff6123e03658eU, 0x3ee75f59be091c0fU, 0x3e91add0bd9ff612U, 0x3c36d0143edbf258U,
  0xbe948910be591718U, 0xbe36d014beb11993U, 0x3e1a3f913e9d1ad1U, 0x3d9ff6123d948910U,
  0xbe25ac92beab6313U, 0x3dfb5e1cbe0ed290U, 0xbf091c0fbc891c0fU, 0xbdfb5e1c3e36d014U,
  0x3d091c0f3ee48419U, 0xbdc23d15bef2cc5bU, 0x3db6d0143ce48419U, 0xbdfb5e1cbf18d1f1U,
  0x3d7b5e1cbed36097U, 0xbe7b5e1cbbb6d014U, 0x3dfb5e1cbe03658eU, 0x3e75a79bbe1a3f91U,
  0xbd7b5e1cbe091c0fU, 0xbd648419be2b6313U, 0x3d4daa16be976451U, 0xbf3562743ce48419U,
  0xbd091c0f3e47f396U, 0x3e591718bd891c0fU, 0xbc36d0143e7b5e1cU, 0xbdfb5e1cbe8640cfU,
  0x3e9ff612beb9ab54U, 0x3dcdaa163ce48419U, 0xbe03658ebe976451U, 0xbdd917183e423d15U,
  0x3e6484193e148910U, 0xbcb6d014bdd91718U, 0xbc891c0fbe1a3f91U, 0xbe808a4ebd1ff612U,
  0x3dab63133d648419U, 0x3e1489103d7b5e1cU, 0x3db6d0143db6d014U, 0x3e2b63133c36d014U,
  0x3ce48419be7b5e1cU, 0x3e25ac923e7b5e1cU, 0x3e6a3a9abcb6d014U, 0x3dfb5e1c3e1ff612U,
  0xbe091c0f3eb6d014U, 0xbd36d0143e36d014U, 0x3cb6d014bdb6d014U, 0xbcb6d014bd091c0fU,
  0x3d948910bea5ac92U, 0x3dd91718be0ed290U, 0x3e1a3f913d7b5e1cU, 0x3ce484193e091c0fU,
  0x3ce48419be976451U, 0xbde48419be9a3f91U, 0xbe091c0f3c36d014U, 0x3e591718be148910U,
  0x3d030938bd2eb6f6U, 0x3e153c47be655022U, 0xbdf783313e0a50d8U, 0x3db5fe953db5fe95U,
  0xbed14b2b3e030938U, 0xbe40ea04be06ad08U, 0xbda027b6bdbd4635U, 0x3d2027b63e40ea04U,
  0xbd68f3f2be35fe95U, 0x3d919877bc919877U, 0xbe276f563e4f7944U, 0x3c2eb6f63c68f3f2U,
  0x3dcbd574bc2eb6f6U, 0x3e1c83e73df03b92U, 0x3e35fe953daeb6f6U, 0x3e39a2653e0a50d8U,
  0xbd919877bd2027b6U, 0x3d919877be919877U, 0x3e119877bdaeb6f6U, 0x3d1198773e778331U,
  0xbe84db20bd919877U, 0xbe39a2653e0a50d8U, 0xbb68f3f23dd31d13U, 0xbc919877bda76f56U,
  0x3c68f3f23dda64b3U, 0x3e0df4a7bc68f3f2U, 0x3e61ac523e40ea04U, 0xbc68f3f2bd98e017U,
  0xbce8f3f2be7b2701U, 0xbe3d4635bb68f3f2U, 0xbdf03b923c68f3f2U, 0x3d8309383da76f56U,
  0x3ce8f3f23e153c47U, 0x3dc48dd4bdaeb6f6U, 0xbdf783313d030938U, 0xbea3cb86be0df4a7U,
  0x3da027b63be8f3f2U, 0xbd3d4635bdaeb6f6U, 0x3d0309383e830938U, 0x3e448dd43ec65fbcU,
  0x3b68f3f2bd2eb6f6U, 0xbd5a64b33de8f3f2U, 0xbe030938U, 0xbe39a2653df03b92U,
  0x3e06ad08bd3d4635U, 0x3d9198773d3d4635U, 0xbd1198773d2eb6f6U, 0xbdb5fe953d4bd574U,
  0x3dbd4635bd68f3f2U, 0x3dcbd574be2b1326U, 0x3e0df4a73de8f3f2U, 0x3d2eb6f63e9c83e7U,
  0xbde8f3f2bd4bd574U, 0x3dd31d13bd3d4635U, 0xbee7220aU, 0xbdc48dd43e703b92U,
  0xbd9198773e23cb86U, 0x3d830938bdd31d13U, 0xbe4831a4be35fe95U, 0x3d030938bd5a64b3U,
  0xbd0309383e18e017U, 0x3e4831a43e5a64b3U, 0xbe4f7944bd778331U, 0x3caeb6f63d68f3f2U,
  0x3e2f17d03cdaddc4U, 0xbd2f17d03e65cf41U, 0x3e08ca9a3e2f17d0U, 0x3c2f17d0be556506U,
  0xbebcc5ac3caf17d0U, 0xbe13bc18be13bc18U, 0x3e0351dc3dcfec47U, 0x3caf17d0bef0c0beU,
  0x3daf17d03d1934d6U, 0x3e0351dcbe6b4800U, 0xbe0351dcU, 0x3e242653bef6397cU,
  0x3df0c0be3caf17d0U, 0xbd8e43593d8351dcU, 0x3d8351dcbc8351dcU, 0x3baf17d03baf17d0U,
  0x3dfbb23b3e242653U, 0xbbaf17d0bc2f17d0U, 0xbdba094dU, 0xbddaddc4bd8351dcU,
  0xbc2f17d0bdfbb23bU, 0x3d70c0be3e1934d6U, 0xbe80957d3e605682U, 0xbdba094dbea6e2b2U,
  0xbd9934d6bd0351dcU, 0xbe1ead94bd9934d6U, 0x3e6056823e2f17d0U, 0xbd70c0bebc2f17d0U,
  0x3e6056823c2f17d0U, 0xbe3f820cbddaddc4U, 0xbbaf17d03d8e4359U, 0xbd8e4359be556506U,
  0x3d44faca3d5addc4U, 0xbed2a8a63dc4facaU, 0xbe8351dcbda42653U, 0xbd9934d63ec7b729U,
  0x3c8351dcbe1934d6U, 0x3d1934d63e3a094dU, 0x3ddaddc4bd70c0beU, 0x3e34908e3da42653U,
  0x3d44facabe8b86faU, 0xbd44facabcdaddc4U, 0x3e44facabda42653U, 0x3c2f17d03d1934d6U,
  0x3e08ca9abe3a094dU, 0xbd5addc4bd8e4359U, 0xbe9ead94bdf0c0beU, 0xbe5565063dc4facaU,
  0xbdf0c0be3d8e4359U, 0xbe93bc183cdaddc4U, 0xbe93bc18bd44facaU, 0xbcaf17d0bbaf17d0U,
  0xbed2a8a6be1934d6U, 0xbe0351dc3e1ead94U, 0x3ea42653bd44facaU, 0xbbaf17d0be967877U,
  0x3e13bc18bf2db9a0U, 0x3dc4faca3e76397cU, 0x3baf17d03e13bc18U, 0x3d70c0bebde5cf41U,
  0xbe299f12bee5cf41U, 0x3d2f17d03e0e4359U, 0xbe8351dc3d8351dcU, 0xbe2f17d03ea169f4U,
  0x3d21af863de86c51U, 0xbe80d7df3dde5158U, 0xbdabca7e3c728749U, 0xbde86c51bba1af86U,
  0x3d5e51583f13ca70U, 0xbd21af86be128711U, 0x3db5e5773c728749U, 0xbca1af863e35e577U,
  0xbde86c51bcca1b68U, 0xbd835e9d3cca1b68U, 0x3e635ed43ea43644U, 0xbe2bca7ebcf28749U,
  0x3d0d79953d0d7995U, 0xbca1af863dfca241U, 0x3dd43660be17948eU, 0xbe035e9d3dca1b68U,
  0x3e086c193e26bd02U, 0xbdca1b68bca1af86U, 0xbe2bca7e3dc0006fU, 0x3dde5158bd5e5158U,
  0xbdca1b683e7794c5U, 0x3e8d7995be80d7dfU, 0xbda1af863d21af86U, 0x3cf287493dfca241U,
  0x3dfca241bd97948eU, 0x3c7287493e686c51U, 0xbc7287493e886c19U, 0xbe835e9dbd35e577U,
  0xbba1af86bca1af86U, 0x3e086c19bdca1b68U, 0x3e1287113d8d7995U, 0xbde86c51be6d79cdU,
  0x3e7287493d728749U, 0xbd21af863db5e577U, 0x3dfca241U, 0x3c21af863d728749U,
  0x3e5436603e928711U, 0x3d5e5158bd35e577U, 0xbe6d79cd3e728749U, 0x3d4a1b68bdfca241U,
  0xbe21af863c21af86U, 0xbd0d79953dd43660U, 0x3d21af863e950dd0U, 0x3df28749U,
  0xbd97948e3e85e55bU, 0x3de86c513d97948eU, 0x3e5436603d728749U, 0x3c728749bd8d7995U,
  0x3e086c19bdc0006fU, 0x3ca1af86be950dd0U, 0x3c21af86bcf28749U, 0x3e1ca20a3e7794c5U,
  0x3e7794c53d8d7995U, 0xbcf28749bf206c27U, 0x3c7287493e928711U, 0xbc21af863d728749U,
  0xbdd436603da1af86U, 0x3e5e5158be4a1b68U, 0x3e85e55b3ea943c0U, 0xbd5e51583e2bca7eU,
  0x3dabca7ebdca1b68U, 0xbe9287113e2bca7eU, 0x3de86c513ba1af86U, 0x3e686c51be6d79cdU,
  0x3e2a2da53dee3fe7U, 0x3d7998473dcc36c6U, 0xbd1ed5443d1ed544U, 0xbeafd9d5U,
  0x3df998473e1ed544U, 0x3e0dd0b43d082484U, 0xbe578f263db58605U, 0x3e082484U,
  0x3dd78f263ce2e786U, 0xbf0dd0b4be4c36c6U, 0xbd799847bdaa2da5U, 0xbce2e786bdcc36c6U,
  0x3eaa2da53db58605U, 0x3e3586053e8afa9cU, 0x3de2e786bd4c36c6U, 0xbde2e7863e51e2f6U,
  0xbe8dd0b4bc882484U, 0xbbb58605bd937ce4U, 0xbbb58605bd62e786U, 0xbdd78f26bf0c65a8U,
  0x3d799847be8dd0b4U, 0xbde2e7863d1ed544U, 0xbe73ec17bde2e786U, 0x3daa2da53ed4b90eU,
  0xbcb58605be90a6ccU, 0xbce2e786bcb58605U, 0x3d1ed5443e027854U, 0xbe40de65bce2e786U,
  0x3d358605bdf99847U, 0xbdcc36c63d358605U, 0xbe40de65bc882484U, 0x3dcc36c63db58605U,
  0x3d62e786be027854U, 0x3daa2da5be51e2f6U, 0x3d62e786bf341af9U, 0xbdc0de653daa2da5U,
  0xbd4c36c6bdb58605U, 0x3d0824843e1ed544U, 0xbe137ce43e137ce4U, 0x3e8824843dd78f26U,
  0xbd9ed5443e2fd9d5U, 0xbd4c36c6bd082484U, 0xbdd78f263bb58605U, 0x3e6e3fe7be358605U,
  0xbd799847be827854U, 0x3dd78f26be854e6cU, 0xbe90a6ccU, 0xbd3586053daa2da5U,
  0x3d9ed5443e358605U, 0xbeaa2da5bdaa2da5U, 0xbe468a95bedd3b56U, 0x3e937ce4bd082484U,
  0xbbb58605be2fd9d5U, 0x3e137ce4be468a95U, 0x3ce2e7863c358605U, 0xbdb586053e9bff2cU,
  0x3d7998473e5d3b56U, 0x3e3b3235be358605U, 0xbdd78f26be827854U, 0x3e578f263e2a2da5U,
  0xbef6c22f3e937ce4U, 0xbdb58605bec3b47dU, 0xbe937ce43ecc36c6U, 0xbc358605bd937ce4U,
  0xbdfc47f7be3309c8U, 0xbe8235a9bc43507eU, 0xbea4cbea3daae66eU, 0xbe22c313be1a9fb9U,
  0x3ca2c31300000000U, 0x3e3f3ed0be6c0142U, 0x3da2c3133e74249dU, 0x3edbba8dbddbba8dU,
  0xbd0235a9bee9f86cU, 0xbd9a9fb900000000U, 0x3e0647563e78364aU, 0xbddbba8d3dd39733U,
  0xbd8235a9be57a8e0U, 0x3daae66ebe5fcc3aU, 0xbe2ef81bU, 0xbe8235a93d8a5904U,
  0x3ea4cbea3daae66eU, 0xbe63dde83e843e80U, 0xbddbba8dbdf4249dU, 0x3e26d4c1be0e6ab1U,
  0xbc8235a9be9eb166U, 0xbd43507e3dbb2d23U, 0x3d9a9fb9bd43507eU, 0x3d0235a93daae66eU,
  0x3e22c3133c43507eU, 0x3e2ae66e3e2ae66eU, 0x3dc3507e3ea0ba3dU, 0x3ce3dde83e22c313U,
  0xbe064756bd539733U, 0x3d22c3133dec0142U, 0x3db309c83e127c5eU, 0x3e168e0bbc43507eU,
  0xbe2ef81bbd63dde8U, 0xbd539733bc0235a9U, 0xbdd39733be78364aU, 0xbe1eb166bea2c313U,
  0xbe88502dbf01313eU, 0x3d927c5ebe1a9fb9U, 0xbe8e6ab1U, 0x3d8a59043e43507eU,
  0x3d127c5ebe22c313U, 0x3e371b763d63dde8U, 0xbd63dde8be88502dU, 0xbe127c5e3e3309c8U,
  0x3ce3dde8be1eb166U, 0x3d74249dbd9a9fb9U, 0xbe8c61da3e127c5eU, 0x3e88502dU,
  0xbd22c313bda2c313U, 0x3da2c313be168e0bU, 0xbc0235a9be864756U, 0x3c8235a9bb8235a9U,
  0xbee1d511be0235a9U, 0x3dd39733bd9a9fb9U, 0xbe7c47f7be127c5eU, 0xbda2c313U,
  0x3d3309c83e78364aU, 0xbd74249d3d8235a9U, 0xbec96b013e74249dU, 0x3e802cd2bdb309c8U,
  0x3dfc47f7bd539733U, 0x3db309c83e1a9fb9U, 0xbed18e5cbdbb2d23U, 0xbe8c61dabd127c5eU,
  0x3e05e98cbddf2fe8U, 0x3df58180be831f59U, 0xbd5f2fe83da763eeU, 0x3e3db586bcdf2fe8U,
  0xbe7581803d328cbaU, 0xbd9112573e6fed1aU, 0xbd05e98c3ddf2fe8U, 0xbe64c44e3ddf2fe8U,
  0xbd5f2fe8bd758180U, 0xbdd4071dbd1c3b23U, 0xbdd4071d00000000U, 0x3dbdb586be382120U,
  0x3d328cbabbb28cbaU, 0x3d5f2fe8bd5f2fe8U, 0x3d48de513df58180U, 0x3e2cf8543e0b7df1U,
  0x3e5f2fe8bbb28cbaU, 0xbdf58180be05e98cU, 0xbe16a6bd3bb28cbaU, 0x3d7581803ddf2fe8U,
  0x3e2763ee3e2cf854U, 0x3dea58b4be111257U, 0x3d85e98c3bb28cbaU, 0x3d85e98c3e48de51U,
  0xbc85e98cbdb28cbaU, 0x3d9c3b233ddf2fe8U, 0xbd85e98c3e328cbaU, 0x3dc8de51bd328cbaU,
  0xbd9c3b23be88b3beU, 0xbe9112573ddf2fe8U, 0xbe911257bdb28cbaU, 0x3e328cbabd911257U,
  0xbdbdb586bdf58180U, 0x3e382120bd05e98cU, 0xbdd4071d3e599b83U, 0x3cb28cbabd85e98cU,
  0xbdbdb5863df58180U, 0xbd328cba3d911257U, 0xbd85e98c3d5f2fe8U, 0xbe6fed1abd1c3b23U,
  0x3e0055263e328cbaU, 0x3e111257bbb28cbaU, 0x3cdf2fe83e9970f0U, 0xbd328cbabddf2fe8U,
  0xbe2cf8543e005526U, 0x3e0b7df1bd5f2fe8U, 0x3e3821203e21cf89U, 0x3e05e98cbd85e98cU,
  0x3c328cbabe7b15e6U, 0x3e831f59bd758180U, 0xbd328cbabbb28cbaU, 0x3d48de513d85e98cU,
  0xbe9f05563e599b83U, 0x3d328cbabdc8de51U, 0xbe2763ee3e48de51U, 0xbe21cf89bf3127a1U,
  0xbe0b7df13e9f0556U, 0x3c328cbabe4349ebU, 0x3dc8de513e6fed1aU, 0x3e16a6bdbe9c3b23U,
  0x3d9112573e93dc8aU, 0x3e05e98c3d48de51U, 0x3e0055263d758180U, 0x3d85e98c3e0b7df1U,
  0x3d70a8e2be2a77a0U, 0x3e37006c3d0c6284U, 0xbdaf7b25be1deed5U, 0x3e39822fbd825b7bU,
  0xbcf0a8e23e8c6284U, 0x3e811a9a3e1b6d12U, 0xbe3e85b3be0ee446U, 0x3d2070973d207097U,
  0xbda5741cbd825b7bU, 0x3dbe85b3bd025b7bU, 0xbcc88cbd3e18eb50U, 0x3e2f7b25bd5293c6U,
  0xbdb9822fbcf0a8e2U, 0xbe619e54be410776U, 0x3e075eff3d16698eU, 0x3dc389383d7aafecU,
  0xbdaa77a0be1deed5U, 0xbe9f2fb63cdc9ad0U, 0xbc207097U, 0x3cf0a8e2bd025b7bU,
  0xbe0ee4463dc38938U, 0x3dffb371bc70a8e2U, 0x3da5741c3e7aafecU, 0x3db47eaa3d0c6284U,
  0xbd875effbbf0a8e2U, 0x3e27f5debe488cbdU, 0xbc8c62843e488cbdU, 0xbe1b6d12bd16698eU,
  0xbe39822f3d3e85b3U, 0xbda5741cbdbe85b3U, 0xbcf0a8e23c8c6284U, 0xbb207097bdffb371U,
  0x3dc389383db47eaaU, 0x3e4107763da5741cU, 0xbe5f1c923e6e2720U, 0x3cc88cbdbe0c6284U,
  0xbc488cbd3c207097U, 0x3df5ac673cdc9ad0U, 0xbe460afa3e0c6284U, 0xbe18eb50be551589U,
  0xbe18eb503daf7b25U, 0xbca07097bba07097U, 0xbd875eff3d9b6d12U, 0x3e7aafecbd488cbdU,
  0x3e2cf9633e0c6284U, 0x3d66a1d93bf0a8e2U, 0x3e18eb503dd293c6U, 0xbdf0a8e2be04dd3dU,
  0x3e075effbe410776U, 0x3e0c62843e7d31aeU, 0xbe8b21a3bbf0a8e2U, 0xbbf0a8e23cc88cbdU,
  0xbe09e0c23da5741cU, 0x3e4d90413ba07097U, 0x3c70a8e23da5741cU, 0x3d8c628400000000U,
  0xbd825b7b3dffb371U, 0x3e13e7cb3cb47eaaU, 0xbd2a77a03e04dd3dU, 0x3e97aa6f3daf7b25U,
  0xbc8c62843d207097U, 0xbd3e85b33e438938U, 0x3b2070973d025b7bU, 0x3e04dd3d3c207097U,
  0x3e1cfea13ef7443eU, 0x3ec43e4a3ec43e4aU, 0x3c7b31023d7b3102U, 0xbe818545bd5bcae2U,
  0x3e5bcae23f793aa0U, 0x3f24d8293e952519U, 0xbe2cb1b13e4c17d2U, 0x3ee3a46a3e8d4b91U,
  0x3dcc17d23dcc17d2U, 0x3f2ea813U, 0x3e8d4b913e152519U, 0x3f0185453e63a46aU,
  0x3eb48b393eacb1b1U, 0x3edbcae23ebc64c2U, 0x3e5bcae23e1cfea1U, 0xbea0eb653ef3577aU,
  0x3dacb1b13f0b552fU, 0x3e0d4b913e0d4b91U, 0x3ec82b0e3e63a46aU, 0xbe057209bd7b3102U,
  0x3ef3577a3e7b3102U, 0x3eeb7df2bddbcae2U, 0xbd5bcae23e348b39U, 0x3f53f15a3eef6ab6U,
  0x3d5bcae23ec43e4aU, 0x3f0d4b913e9911ddU, 0x3ec82b0e3deb7df2U, 0x3e895ecd3f057209U,
  0x3e857209bd7b3102U, 0x3ea0eb653e9911ddU, 0x3e9138553e53f15aU, 0xbd5bcae23e9cfea1U,
  0xbd1cfea13ecc17d2U, 0x3e6b7df23f61ae08U, 0x3ed00496bd7b3102U, 0x3e443e4a3f1911ddU,
  0x3f095ecd3f3e5b24U, 0x3f0f41f33eb09e75U, 0x3f0d4b913d3c64c2U, 0x3ecc17d23ed00496U,
  0x3f1b083f3f018545U, 0x3f095ecd3e7b3102U, 0x3e895ecdbebc64c2U, 0x3ebc64c23efb3102U,
  0x3d8d4b913ec43e4aU, 0x3e348b39be2cb1b1U, 0x3f26ce8bU, 0x3ebc64c23ec43e4aU,
  0xbe4c17d2bdbc64c2U, 0x3d3c64c23f55e7bcU, 0x3f3c64c2be24d829U, 0x3dacb1b13ea8c4edU,
  0x3f57de1e3f26ce8bU, 0x3ef3577a3f1cfea1U, 0x3f53f15abd7b3102U, 0x3f1911dd3e348b39U,
  0x3f6987903eb48b39U, 0x3ec051863f0d4b91U, 0x3e152519bd3c64c2U, 0x3ee3a46a3e913855U,
  0xbe1cfea13d9cfea1U, 0x3ec051863e348b39U, 0x3e53f15a3e24d829U, 0x3ec43e4a3f018545U,
  0xbe5abf6bbd672132U, 0x3e1074bfbe3ddb44U, 0x3ca517b6bd9cd686U, 0xbde72132be1074bfU,
  0x3e1cd686U, 0x3e8623443e7382f9U, 0xbd0412f83d359a15U, 0x3e8202ac3e359a15U,
  0xbd9495573d8c5428U, 0x3d0412f8bd0412f8U, 0xbdc61c743dad58e6U, 0x3de721323e359a15U,
  0xbc461c74be7bc429U, 0x3d8c5428bce72132U, 0xbca517b63d8412f8U, 0xbe20f71e3ce72132U,
  0x3dc61c74be31797dU, 0xbe5abf6b3c8412f8U, 0xbe31797dbc0412f8U, 0x3e1cd686bcc61c74U,
  0xbe20f71e3e1cd686U, 0x3e29384e3d359a15U, 0xbe29384ebf030ad2U, 0x3ee510e63eb9baadU,
  0x3dbddb44bca517b6U, 0x3e31797dbd0412f8U, 0x3c461c743d9cd686U, 0xbd9cd6863df7a391U,
  0x3c0412f8bddee002U, 0xbe0412f83d0412f8U, 0xbea517b63d0412f8U, 0x3dffe4c000000000U,
  0xbd1495573ea72802U, 0xbd461c74be4a3d0cU, 0xbe0412f8bdef6262U, 0xbe1495573dbddb44U,
  0xbeb1797d3ce72132U, 0xbe41fbdcbd8c5428U, 0xbe31797dbe41fbdcU, 0x3d949557bddee002U,
  0xbc461c74be39baadU, 0xbd672132be5ee002U, 0x3e8e64733ca517b6U, 0xbe77a3913da517b6U,
  0x3da517b63ddee002U, 0x3e527e3b00000000U, 0x3e4e5da4bdd69ed3U, 0xbe8a43dc3dce5da4U,
  0x3d359a153d672132U, 0x3de72132be2517b6U, 0xbece5da43e9ac63bU, 0xbe0412f8be8202acU,
  0xbea3076abe7382f9U, 0xbd0412f8bdc61c74U, 0xbeaf6931be7fe4c0U, 0xbe96a5a3bdbddb44U,
  0xbebbcaf9bd2517b6U, 0xbe0412f83dce5da4U, 0xbd6721323ca517b6U, 0x3e7fe4c0bd461c74U,
  0x3d6721323e7fe4c0U, 0x3ea3076abd569ed3U, 0x3cc61c743d9cd686U, 0xbe39baad3e569ed3U,
  0xbbbf9241bde37dadU, 0x3d3f92413e3995afU, 0x3dd784893e15aa43U, 0xbe3995af3d9ba6d5U,
  0x3db3991dU, 0xbe7b6ff5bcef76d1U, 0x3e09b11fU, 0x3ec2908abe6f76d1U,
  0xbd279ff9U, 0xbe5d811bbe0fadb1U, 0xbcbf9241bd83b48dU, 0xbe5d811b3d8fadb1U,
  0x3e578489bbbf9241U, 0xbc3f92413e33991dU, 0xbe458ed3be5d811bU, 0xbde37dad3ebc93f8U,
  0x3da79ff9bc3f9241U, 0xbdfb6ff53e1ba6d5U, 0x3e15aa43bd83b48dU, 0xbd6f76d1bd9ba6d5U,
  0xbe8fadb1becb8b65U, 0xbdd78489be1ba6d5U, 0x3bbf9241be279ff9U, 0x3d6f76d13db3991dU,
  0xbcbf92413d578489U, 0x3e1ba6d5bd8fadb1U, 0x3cef76d13d9ba6d5U, 0xbe8caf683d578489U,
  0x3dd784893def76d1U, 0x3e4b8b65bdef76d1U, 0x3d5784893da79ff9U, 0xbe5d811bbdb3991dU,
  0xbdbf92413d83b48dU, 0x3e1ba6d5bdbf9241U, 0x3dfb6ff53d578489U, 0xbe03b48d3de37dadU,
  0x3d279ff93cbf9241U, 0x3cbf9241bd9ba6d5U, 0x3dfb6ff5be0fadb1U, 0x3d8fadb1be21a367U,
  0x3e0fadb13def76d1U, 0xbe09b11fbe15aa43U, 0xbda79ff9be757363U, 0xbd83b48dbe89b11fU,
  0x3e03b48dbbbf9241U, 0xbcbf92413def76d1U, 0x3d6f76d1be21a367U, 0xbc3f9241bd0fadb1U,
  0xbc8fadb1bbbf9241U, 0x3e1ba6d53e86b2d6U, 0xbf3e131cbd578489U, 0xbe21a367be757363U,
  0xbde37dad3c8fadb1U, 0xbd6f76d13dbf9241U, 0x3e86b2d6be5187f7U, 0xbec58ed33def76d1U,
  0x3cbf9241be83b48dU, 0xbe3f92413e578489U, 0xbe279ff93c3f9241U, 0x3e697a3fbe3f9241U,
  0xbda79ff9be2d9c8bU, 0x3d8fadb13d279ff9U, 0xbe458ed3be757363U, 0x3e86b2d63e2d9c8bU,
  0xbb8d7d2dbe091144U, 0x3d30dc783e4b63f1U, 0x3df79b0f3d965500U, 0x3de5eb693e6a5753U,
  0xbd8d7d2d3e891144U, 0x3c0d7d2d3ebe2034U, 0x3e0d7d2d3e6ec33cU, 0x3e5d1396be3e2034U,
  0x3df79b0f3d1f2cd3U, 0xbda804a53e11e916U, 0xbe4b63f13ebbea40U, 0x3c0d7d2dbee5eb69U,
  0xbd1f2cd3be1f2cd3U, 0xbd8d7d2d3e3e2034U, 0x3e165500bda804a5U, 0xbdb9b44b3ddd1396U,
  0x3e2398bcbcb0dc78U, 0x3e4fcfda3d30dc78U, 0x3e732f253e1f2cd3U, 0x3c0d7d2dbcb0dc78U,
  0xbdf79b0f3e803971U, 0xbb8d7d2dU, 0x3c543bc4be65eb69U, 0x3d1f2cd3bebe2034U,
  0xbe39b44b3dd43bc4U, 0xbd8d7d2d3e165500U, 0xbeb3126d3e803971U, 0x3e7c06f8bf0c6233U,
  0x3e04a55abe732f25U, 0xbd543bc43e39b44bU, 0xbe617f80bd965500U, 0xbe7c06f83cf79b0fU,
  0x3e65eb693e7c06f8U, 0x3b8d7d2dbe4fcfdaU, 0x3e84a55a3cb0dc78U, 0xbe5d1396bc8d7d2dU,
  0x3db9b44b3d84a55aU, 0xbd9f2cd3bde5eb69U, 0xbea162c7bcf79b0fU, 0x3e803971beaa3a9aU,
  0xbe9f2cd33ed205cfU, 0x3e003971be7c06f8U, 0x3e8039713db9b44bU, 0x3c8d7d2d3e891144U,
  0x3d84a55a3d84a55aU, 0xbdb9b44bbe46f807U, 0x3e8039713e4b63f1U, 0xbd965500be1f2cd3U,
  0xbc0d7d2d3e9f2cd3U, 0xbe0d7d2dbe1ac0e9U, 0xbe2398bcbe58a7adU, 0xbddd13963e5d1396U,
  0x3ee5eb693e0d7d2dU, 0x3e165500becfcfdaU, 0x3d543bc43e2398bcU, 0x3e65eb693d9f2cd3U,
  0xbd428c1e3e65eb69U, 0x3ebe2034bf0a2c3eU, 0x3e428c1ebe9ac0e9U, 0xbe86db4f3efc06f8U,
  0x3d8d7d2dbda804a5U, 0xbe8fb3223dcb63f1U, 0x3df79b0f3e5d1396U, 0xbe8d7d2dU,
  0xbe11de8fbeab7ebcU, 0xbe29861b3ea78d7aU, 0x3e394b243e21a397U, 0x3d2d775ebd3d3c66U,
  0xbd4d016e3dfc5088U, 0x3de4a8fb3e3559e2U, 0xbdb559e23edebf18U, 0x3e821986be707cc2U,
  0x3dd4e3f3bcfc5088U, 0xbbfc50883d1db255U, 0xbdb559e23ecd016eU, 0xbe8bf4abbe5cc677U,
  0xbec51eea3e785f46U, 0x3c3d3c663d9db255U, 0x3df46e0400000000U, 0xbdb559e2be3559e2U,
  0x3d5cc6773e4d016eU, 0x3e4d016ebddcc677U, 0xbea9861b3e15cfd1U, 0x3bfc5088bc9db255U,
  0xbcbd3c663dd4e3f3U, 0xbdec8b80beee8421U, 0xbcfc5088be5cc677U, 0xbc9db2553e4d016eU,
  0x3cfc5088becb08cdU, 0x3e3168a0bdbd3c66U, 0x3d1db2553e880369U, 0xbcfc50883ead775eU,
  0x3e93d7303de4a8fbU, 0xbda594d9bd2d775eU, 0xbdd4e3f33e451eeaU, 0xbdcd016e3e412da8U,
  0xbda594d9bd1db255U, 0x3bfc5088be021986U, 0xbe1db255bd3d3c66U, 0xbead775ebddcc677U,
  0x3cbd3c663d95cfd1U, 0xbd6c8b80beec8b80U, 0xbe060ac83c3d3c66U, 0xbecd016e3e7c5088U,
  0xbd0ded4c3d4d016eU, 0xbdbd3c66be2d775eU, 0xbe0ded4cbecefa10U, 0xbd95cfd13d5cc677U,
  0xbcdcc677be821986U, 0x3cbd3c66be3168a0U, 0xbc7c50883e64a8fbU, 0x3e29861bbe58d535U,
  0x3e451eea3d9db255U, 0x3c3d3c663c9db255U, 0xbea1a397bd95cfd1U, 0xbc9db2553e785f46U,
  0x3dfc50883e8020e5U, 0xbeb559e23e785f46U, 0x3e60b7b93e3168a0U, 0xbefa57e73dfc5088U,
  0x3eb75283bdec8b80U, 0x3e8803693d3d3c66U, 0x3e54e3f3beee8421U, 0xbd7c50883e4d016eU,
  0x3dad775e3dec8b80U, 0xbd95cfd13e4d016eU, 0x3e3168a03e09fc0aU, 0xbe689a3dbd5cc677U,
  0x3e3ffd3dbd4ec1f3U, 0x3dbffd3d3d3ffd3dU, 0x3da9d62c3e73adbaU, 0x3df3adba3dc75f98U,
  0x3d5d86a9bd6c4b5fU, 0xbd13af1b3dfb1015U, 0xbdb89ae23e8ffdeeU, 0x3d3ffd3dbe313887U,
  0x3e64e9043d93af1bU, 0xbdd6244ebdec4b5fU, 0x3d5d86a93d8c4cc0U, 0xbc6c4b5fbe59d57cU,
  0xbb6c4b5f3e29d62cU, 0xbd84ea65bd2273d1U, 0x3e73adbabd2273d1U, 0xbd4ec1f3be3ffd3dU,
  0xbe7ec142beea72c8U, 0xbe34e9b5bd04ea65U, 0x3dc75f98be775ee7U, 0x3de4e904be1ec2a4U,
  0x3dfb1015bdcec1f3U, 0xbdec4b5fbb6c4b5fU, 0xbd7b10153e313887U, 0x3da273d1be8e2557U,
  0x3d313887bcec4b5fU, 0xbea9d62c3e04ea65U, 0xbb6c4b5fbd8c4cc0U, 0x3e3138873d13af1bU,
  0xbe56244ebd6c4b5fU, 0x3e1ec2a4bd7b1015U, 0xbe9938e0be9cea0dU, 0xbe64e9043e389ae2U,
  0xbd9b1176be2273d1U, 0xbd7b1015bd13af1bU, 0x3e1b1176be9938e0U, 0xbddd86a9bcb13887U,
  0x3dec4b5f3d84ea65U, 0xbe43ae6bbddd86a9U, 0xbccec1f3bd2273d1U, 0xbe5d86a9be976049U,
  0xbd84ea653e04ea65U, 0x3d313887bd93af1bU, 0xbdcec1f3be475f98U, 0xbdec4b5fbe013938U,
  0x3e4ec1f33d04ea65U, 0xbd13af1bbe6ffc8cU, 0x3e089b933ddd86a9U, 0x3da9d62c3c93af1bU,
  0xbe73adba3e313887U, 0x3d7b1015bda273d1U, 0xbbec4b5fbe7b1015U, 0xbe5d86a93e04ea65U,
  0x3d93af1b3e56244eU, 0x3d04ea65be4b10c6U, 0x3d04ea65be0ffdeeU, 0xbe04ea653e0ffdeeU,
  0x3d8c4cc03dcec1f3U, 0x3ccec1f33dcec1f3U, 0x3e313887bee89a32U, 0xbe34e9b53e4ec1f3U,
  0x3d04ea65be3c4c10U, 0x3b6c4b5fbd3ffd3dU, 0xbd4ec1f33e313887U, 0x3d3ffd3dbe43ae6bU,
  0x3d91537bbd08c70aU, 0xbe5e4370bc4d2a8fU, 0x3d803a99bdbc11aeU, 0x3d19dfebbdde4370U,
  0x3e11537bbe88c70aU, 0xbee0668c3dbc11aeU, 0x3e08c70a3ef17f6eU, 0x3e1e2624bf07b57cU,
  0xbc4d2a8f3d19dfebU, 0xbe0d0d42be3c11aeU, 0x3e9599b33e2af8ccU, 0xbe37cb753e48e457U,
  0xbe33853dbd08c70aU, 0xbe226c5cbde6cfe1U, 0x3e3c11ae3da26c5cU, 0x3de6cfe1bdef5c52U,
  0x3caaf8ccbd3c11aeU, 0x3d08c70abe37cb75U, 0xbd803a99bd5e4370U, 0xbe825db6bdde4370U,
  0x3d3c11ae3e6b1619U, 0xbdf7e8c2be825db6U, 0xbd99dfebbe5e4370U, 0x3e91537b3d4d2a8fU,
  0xbcaaf8ccbda26c5cU, 0x3e5170c73e2af8ccU, 0xbe226c5cbe6289a9U, 0x3d5e43703b88c70aU,
  0x3e19dfeb00000000U, 0x3dd5b7003e37cb75U, 0xbe003a993ccd2a8fU, 0xbe2af8cc3da26c5cU,
  0xbd6f5c523d88c70aU, 0x3de6cfe13e48e457U, 0xbe226c5c3ebe34caU, 0x3e8480d2bf059260U,
  0xbd99dfebbd88c70aU, 0x3e26b294bead1be9U, 0x3e0d0d42bd4d2a8fU, 0x3dc49e1e3e1e2624U,
  0x3e4d2a8fbecf4dabU, 0xbeaf3f05bdde4370U, 0xbdf7e8c23d08c70aU, 0x3c08c70abe0480d2U,
  0x3e1e26243e449e1eU, 0xbe08c70a3daaf8ccU, 0x3d803a99be9599b3U, 0x3e08c70abda26c5cU,
  0xbe1599b3bd6f5c52U, 0xbe4d2a8fbc4d2a8fU, 0xbe73a28a3c4d2a8fU, 0x3e19dfeb3e77e8c2U,
  0x3d2af8ccbe88c70aU, 0xbdcd2a8f3eaaf8ccU, 0x3dcd2a8f3e4d2a8fU, 0xbea48f783e59fd38U,
  0xbc4d2a8fbe803a99U, 0x3e0480d23e8d0d42U, 0x3e26b294be55b700U, 0xbe59fd383e7c2efaU,
  0xbd88c70abe66cfe1U, 0xbc08c70a3ee6cfe1U, 0xbda26c5cbcef5c52U, 0x3e99dfeb3e08c70aU,
  0xbe89fd2cbdc9ad18U, 0x3e29d5223d69850fU, 0x3e742261bde9850fU, 0xbcfebfb3bd29d522U,
  0xbda9d5223e8755d7U, 0xbd544a6a3ebf0fc6U, 0xbc29d522bd9f37d0U, 0x3d69850fbda9d522U,
  0xbcfebfb3be79710aU, 0x3dd44a6abba9d522U, 0x3c29d522be84ae83U, 0x3d7ebfb33e69850fU,
  0x3e6ed3b8bedc4068U, 0xbf1b3cd13dbf0fc6U, 0xbe742261bd29d522U, 0xbe82072e3da9d522U,
  0xbe89fd2c3e29d522U, 0x3d29d522bda9d522U, 0xbe79710abdbf0fc6U, 0xbd7ebfb33dfebfb3U,
  0x3e8f4bd53e99e927U, 0xbcfebfb3be3f0fc6U, 0x3d7ebfb3be544a6aU, 0x3dbf0fc63e49ad18U,
  0xbba9d522bdc9ad18U, 0x3d29d522bde9850fU, 0x3d149a7ebed99914U, 0xbda9d5223dd44a6aU,
  0xbcd44a6abe3f0fc6U, 0xbe04ae83bcd44a6aU, 0xbe5ee7bdbe0f4bd5U, 0xbe3f0fc63d149a7eU,
  0x3d9f37d0bebf0fc6U, 0x3e19e9273e69850fU, 0xbdfebfb33e84ae83U, 0x3e149a7e3ec45e6fU,
  0x3eac7c77be04ae83U, 0xbd949a7e3e149a7eU, 0xbd69850fbeaf23cbU, 0xbe1f37d0bf1741d2U,
  0xbdb47274be643666U, 0x3e39c11dbcd44a6aU, 0xbddee7bd3dfebfb3U, 0xbd69850fbdc9ad18U,
  0x3df422613e1f37d0U, 0xbd949a7e3d29d522U, 0xbc7ebfb3bde9850fU, 0xbd69850fbe1f37d0U,
  0x3da9d5223e04ae83U, 0x3ea9d5223e8755d7U, 0x3e3472743e6ed3b8U, 0xbe2f23cbbe742261U,
  0xbd69850f3c7ebfb3U, 0x3e0f4bd5bd3f0fc6U, 0xbe347274be347274U, 0x3e1f37d0bf288178U,
  0xbc29d5223e82072eU, 0xbe79710a3e7ebfb3U, 0x3d149a7e3e29d522U, 0x3e347274bd89fd2cU,
  0xbe1f37d03e04ae83U, 0xbd9f37d03e347274U, 0x3cd44a6a3ba9d522U, 0xbdf42261be1f37d0U,
  0xbe9c05e5bdbbfac4U, 0xbd6193523bf09d24U, 0x3e5a0e69bd3475dbU, 0xbd8edd4dU,
  0x3e0b1ad93e1de720U, 0x3df09d243ea38aceU, 0xbdb475db3d709d24U, 0xbeab0fb8beeebbeaU,
  0xbdcb04963df8220dU, 0xbd709d24be709d24U, 0x3e474222bdd28980U, 0x3e3fbd393dacf0f2U,
  0x3bf09d243d7fa6f6U, 0xbe528980be929fc2U, 0x3d0758643d619352U, 0x3da56c09be129fc2U,
  0xbd7fa6f6bdacf0f2U, 0xbe129fc23c966236U, 0xbe0edd4d3cb475dbU, 0x3d5289803e0b1ad9U,
  0x3e7be482bdcb0496U, 0xbdacf0f23dffa6f6U, 0x3c9662363d3475dbU, 0xbe0b1ad93bf09d24U,
  0xbd966236be528980U, 0x3c709d243c3475dbU, 0x3e292e7dbe30b366U, 0xbcd28980bdb475dbU,
  0xbbf09d24bdbbfac4U, 0xbe6cdaaf3e2cf0f2U, 0x3dd28980bb709d24U, 0xbe709d24bd166236U,
  0x3d6193523e0395f0U, 0x3d6193523e9fc85aU, 0xbd528980be6cdaafU, 0xbebddbfebec37fadU,
  0xbe129fc2bcb475dbU, 0xbe292e7dbd8edd4dU, 0x3e0395f0bc3475dbU, 0x3d075864bd966236U,
  0xbdc37fadbe21a994U, 0x3d8edd4d3e9480fcU, 0xbc3475db3e383850U, 0xbd875864bcd28980U,
  0x3c966236be3fbd39U, 0xbd709d24bd437fadU, 0xbe0edd4d3e1a24abU, 0xbd709d243ebbfac4U,
  0xbc3475db3ea56c09U, 0xbda56c09be709d24U, 0x3eab0fb8bdffa6f6U, 0xbebfbd393de19352U,
  0x3dcb04963dda0e69U, 0xbe0395f0bec19e73U, 0xbe69183b3e383850U, 0x3ebddbfebe30b366U,
  0xbe8395f0bd966236U, 0x3d8edd4d3d9de720U, 0x3dc37fadbd966236U, 0xbd9de7203e166236U,
  0x3ea1a994be6cdaafU, 0xbe85772a3cb475dbU, 0x3e5289803ea38aceU, 0xbc709d24be8cfc13U,
  0x3d0c26b6bdd23a11U, 0xbd8223f2be663f99U, 0xbd48374e00000000U, 0x3e393328bd8c26b6U,
  0x3d8c26b6be6b40fbU, 0xbe202c3e3e0223f2U, 0x3cc8374ebe663f99U, 0xbe98aa2bbc202c3eU,
  0xbe613e373d96297aU, 0x3d3431c63c70425dU, 0xbe202c3ebdaa2f02U, 0x3d48374e3dc8374eU,
  0x3dbe348a3dd23a11U, 0xbe0c26b6be523a11U, 0xbd5c3cd53daa2f02U, 0x3e0725543d5c3cd5U,
  0xbe70425d3d202c3eU, 0xbd3431c6bba02c3eU, 0xbe1b2adcbd8223f2U, 0xbe072554bc202c3eU,
  0xbcc8374e3cc8374eU, 0xbc70425d3ca02c3eU, 0x3db431c6be6b40fbU, 0x3d8223f2bca02c3eU,
  0x3ca02c3ebd96297aU, 0x3e202c3eU, 0x3d3431c6be2f3064U, 0x3d48374e3db431c6U,
  0x3de63f99be16297aU, 0x3cc8374e3c202c3eU, 0xbe1b2adcbdc8374eU, 0x3e2a2f02bcf0425dU,
  0x3d70425dbe7f4683U, 0xbd0c26b63c202c3eU, 0x3daa2f02be112818U, 0x3e2a2f02bddc3cd5U,
  0x3d8223f23e3431c6U, 0x3e252da03e2f3064U, 0xbe4335ec3dfa4521U, 0xbdbe348a3e4d38afU,
  0xbd3431c6bddc3cd5U, 0x3d70425dU, 0x3d3431c6be072554U, 0xbdf0425d3ddc3cd5U,
  0x3d48374e3e0c26b6U, 0xbe2a2f023e872554U, 0xbe4335ec3e072554U, 0x3d8c26b6bed4bac2U,
  0x3d96297abd202c3eU, 0x3ea02c3ebe072554U, 0x3e3e348a3e072554U, 0x3df0425d3e8ea767U,
  0xbda02c3ebeacafb3U, 0xbc202c3ebba02c3eU, 0x3e48374ebe1b2adcU, 0x3ba02c3e3e9dab8dU,
  0x3e98aa2b3e8c26b6U, 0x3e872554be4335ecU, 0xbd3431c63e16297aU, 0xbcf0425dbe70425dU,
  0x3c70425d3d3431c6U, 0x3cf0425dbe16297aU, 0x3e4335ec3e252da0U, 0x3f1eebe6be613e37U,
  0xbd8c0e2dbdd6c067U, 0x3d02b7e6be6016aeU, 0xbb956474bdf2c33cU, 0xbdd6c0673de016aeU,
  0xbe31674a3ce016aeU, 0x3e521543U, 0x3d8c0e2d3dcd6a20U, 0xbe696cf53dcd6a20U,
  0xbdd6c0673e3abd91U, 0xbcbabd91be3f68b5U, 0x3e31674abe2cbc26U, 0xbe1564743e521543U,
  0x3dfc1984be521543U, 0xbe1a0f983d156474U, 0x3e48befcU, 0xbd72c33cbe1a0f98U,
  0xbdc413d8bc156474U, 0x3c6016aebef518ceU, 0x3e806254be90b950U, 0xbb956474bdf2c33cU,
  0x3b956474bf1439abU, 0x3b956474bd4d6a20U, 0xbe36126dbce016aeU, 0x3da811023e6016aeU,
  0xbebabd913e076309U, 0x3e2365dfbe82b7e6U, 0x3e3abd91bdb1674aU, 0xbce016ae3ec6696aU,
  0xbd3abd91be9a0f98U, 0xbd4d6a20be64c1d2U, 0x3de016ae3d8c0e2dU, 0xbe48befcbd8c0e2dU,
  0xbdbabd91be64c1d2U, 0x3e64c1d23ce016aeU, 0xbe9c65293dd6c067U, 0xbe56c0673da81102U,
  0x3d6016aebe156474U, 0x3c6016aebeaf11b8U, 0xbd281102bd9ebabbU, 0xbed915f93e281102U,
  0x3c956474bcbabd91U, 0xbe850d773df2c33cU, 0xbe02b7e6bdf2c33cU, 0x3e521543be1ebabbU,
  0x3d72c33cbcbabd91U, 0x3e3abd913c156474U, 0x3df2c33cbeb1674aU, 0x3d156474bdb1674aU,
  0xbc9564743d9ebabbU, 0x3e02b7e63d72c33cU, 0xbd8c0e2dbe82b7e6U, 0xbeb3bcdc3b956474U,
  0x3c156474bd281102U, 0x3e776e60bc156474U, 0xbd156474bc156474U, 0xbe36126d3e5b6b8aU,
  0x3e56c0673db1674aU, 0x3e4d6a203cbabd91U, 0xbcbabd91be64c1d2U, 0x3e0763093dd6c067U,
  0x3d2811023e076309U, 0xbd4d6a20bdd6c067U, 0xbe281102bd281102U, 0x3d3abd913e10b950U,
  0xbd898fc3bd00640cU, 0xbe3c00363d49c1c9U, 0x3e409611bd9be733U, 0xbd376a5a3dd2ed81U,
  0xbe730684bda512eaU, 0xbe175157be00640cU, 0xbddc19383e4e57a5U, 0x3dae3ea23e29a8c6U,
  0xbc92bb7b3c12bb7bU, 0x3e32d47ebde544f0U, 0x3e2e3ea23dae3ea2U, 0x3d376a5a3e32d47eU,
  0xbe00640c3e04f9e7U, 0xbd5c19383dd2ed81U, 0xbe8bdab1bdee70a8U, 0x3e04f9e73e52ed81U,
  0x3df79c603de544f0U, 0xbd92bb7bbe898fc3U, 0x3e82aefa3d6e70a8U, 0x3e779c60bb92bb7bU,
  0xbee544f0bd00640cU, 0x3db76a5a3e3c0036U, 0xbc5c1938be0e259fU, 0xbdee70a800000000U,
  0xbe7c323b3dc9c1c9U, 0xbdf79c60be5c1938U, 0xbda512ea3e098fc3U, 0x3e0e259fbc92bb7bU,
  0x3d00640c3d12bb7bU, 0xbd6e70a8bc12bb7bU, 0xbe29a8c6bc12bb7bU, 0xbd92bb7bbcdc1938U,
  0xbcb76a5abee544f0U, 0xbdee70a83e175157U, 0xbe00640cbeae3ea2U, 0x3ed0a2933eee70a8U,
  0xbc92bb7b3ea75dd8U, 0x3dae3ea2bc5c1938U, 0xbd5c19383dc09611U, 0xbeb089903e04f9e7U,
  0x3ea75dd8U, 0x3eb08990bcdc1938U, 0x3e452bedbe5c1938U, 0xbda512eabc5c1938U,
  0xbe098fc33e82aefaU, 0x3d49c1c9be175157U, 0xbcdc19383ec2e0ffU, 0x3e84f9e7be4e57a5U,
  0xbe4e57a5bedc1938U, 0xbe1751573e175157U, 0x3d6e70a8beee70a8U, 0x3d9be7333e9be733U,
  0x3d49c1c93e175157U, 0xbdd2ed813dee70a8U, 0x3e975157bf119604U, 0x3c92bb7b3cdc1938U,
  0x3eb76a5abe49c1c9U, 0x3eb9b5483cb76a5aU, 0x3dae3ea2be00640cU, 0x3d49c1c93e409611U,
  0xbd898fc33cb76a5aU, 0xbdf79c60be2e3ea2U, 0xbe376a5a3e04f9e7U, 0x3e9e32213d80640cU,
  0xbe1bcab13dcf9049U, 0x3da145ac3dc5d066U, 0x3d68a6123e216272U, 0x3f8bb1643df8aceeU,
  0xbd207b7b3eb27b66U, 0x3dd851ddbe0248d8U, 0xbd6ad6cbbcd2f10bU, 0xbe67ff553e1ad275U,
  0x3e07a4f73daae70aU, 0x3da403eb3b801c5eU, 0x3db123a93edd9699U, 0x3dd354cabdcc772cU,
  0x3d0203943e2bae2bU, 0xbdb6e60dbd5ce58cU, 0xbe412eb73e567c84U, 0x3d6bdbf0bcf482dfU,
  0xbd9af550be220076U, 0x3e9064963f5fa207U, 0x3de164d1be0cdf03U, 0xbc6164d13e453837U,
  0x3f0cdf033e6f7b1eU, 0x3e768645be906496U, 0x3d9af5503d0cdf03U, 0x3eac91303dfd916bU,
  0xbd6164d13e3e2d10U, 0xbe13ea293ce164d1U, 0xbe85d3dc3d7d916bU, 0xbe0cdf033e13ea29U,
  0x3e05d3dcbd290b9dU, 0x3f1064963ebe2d10U, 0x3ee164d13ebe2d10U, 0x3f15acf33ca90b9dU,
  0x3ee86ff8be3721eaU, 0x3ec1b2a43e9e7ae3U, 0xbedddf3ebc6164d1U, 0x3ca90b9d3dd34e84U,
  0x3ecc435dbe290b9dU, 0x3e8cdf033e9af550U, 0x3e976fbcbd453837U, 0x3dd34e84bdb721eaU,
  0x3e220076bd290b9dU, 0x3e6f7b1e3e6164d1U, 0x3e9af550bdc53837U, 0x3dfd916bbdef7b1eU,
  0x3e93ea293e89596fU, 0x3ea586093e3721eaU, 0x3d4538373dc53837U, 0xbe05d3dcbdd34e84U,
  0x3d0cdf033d0cdf03U, 0xbdd34e84be5a59aaU, 0xbd9af5503f2e53faU, 0xbdef7b1ebed6d417U,
  0x3e89596f3dfd916bU, 0x3d453837be220076U, 0xbd9af5503dd34e84U, 0x3d7d916bbe7d916bU,
  0x3ee164d1bce164d1U, 0x3f0cdf033e976fbcU, 0x3e7d916bbe290b9dU, 0x3e3016c33e7d916bU,
  0x3d9af550be824e49U, 0xbe3016c3bce164d1U, 0xbe5a59aabe93ea29U, 0xbec1b2a4be1af550U,
  0xbe7686453ea58609U, 0xbde164d13d6164d1U, 0x3ce164d13ee86ff8U, 0x3d8cdf033d7d916bU,
  0x3e5a59aa3ed6d417U, 0x3d7d916b3d8cdf03U, 0xbe2200763ca90b9dU, 0x3d6164d1bd290b9dU,
  0x3c6164d13de164d1U, 0x3e1af550be534e84U, 0xbe1af550bd0cdf03U, 0x3e3721ea3dd34e84U,
  0xbe85d3dcbdfd916bU, 0xbdef7b1e3e7d916bU, 0xbea90b9dbe9e7ae3U, 0xbe3e2d103ca90b9dU,
  0x3e2bc2763dfc7748U, 0xbddf7e933e025f2bU, 0x3d5737843da9b0b2U, 0x3d9d461c3d992294U,
  0x3dd737843dcef075U, 0xbc67c5a23dd313fdU, 0x3dcef0753e089476U, 0x3e258d2b3dba3ed0U,
  0xbd67c5a23dadd43aU, 0x3dd313fd3d67c5a2U, 0x3e0cb7febe279eeeU, 0xbd992294bd889476U,
  0xbdd737843e237b67U, 0xbe382d0c3c0470efU, 0xbe1b34583d94ff0dU, 0xbd0470ef3e815649U,
  0xbdadd43abe279eeeU, 0x3ce7c5a2be0470efU, 0x3d3e62583d14ff0dU, 0x3dcaccee3c46a966U,
  0x3c0470efbd0cb7feU, 0xbb0470efbcd73784U, 0xbc0470ef3e83680dU, 0xbd90db85be6dfaedU,
  0x3d67c5a2be1d461cU, 0x3d9d461c3e69d766U, 0x3d2dd43abdb61b49U, 0xbe382d0cbd46a966U,
  0xbdd313fdbd804d68U, 0x3dba3ed03e3e6258U, 0xbddb5b0c3e279eeeU, 0x3e237b673ddf7e93U,
  0x3d889476bdadd43aU, 0xbb8470efbd700cb1U, 0xbe089476bd9d461cU, 0xbe0cb7febd361b49U,
  0xbe3c5094bd67c5a2U, 0x3db61b493e361b49U, 0x3d9d461c3dba3ed0U, 0xbd361b493dba3ed0U,
  0xbdc285dfbce7c5a2U, 0xbe0cb7fe3c94ff0dU, 0xbe721e75be4285dfU, 0xbe1d461c3c8470efU,
  0xbc0470efbcb61b49U, 0xbe025f2bbd46a966U, 0xbd4ef075be4497a3U, 0xbd992294bd7853c0U,
  0x3e0aa63a3d4ef075U, 0xbe382d0cbb0470efU, 0xbcc6a966bdadd43aU, 0xbe4497a3be6be92aU,
  0x3d992294bc8470efU, 0x3d7853c03da58d2bU, 0x3d90db853e1b3458U, 0xbd2dd43a3c94ff0dU,
  0xbe2169a33cf853c0U, 0xbe29b0b2bd0470efU, 0xbd1d461cbe804d68U, 0xbd5f7e93bd7853c0U,
  0xbc0470efbd8cb7feU, 0xbcd73784bdd73784U, 0xbe5102393d8470efU, 0xbe48bb2abd14ff0dU,
  0xbe6303423e975782U, 0x3df2259cbe9b2018U, 0x3f0288463e083528U, 0x3d1757823eb59c35U,
  0x3d8835283f1b2018U, 0xbf501852bf42da44U, 0x3e3d2d623edb7215U, 0x3ec4be8fbe6a946fU,
  0xbe175782bf1b2018U, 0xbe8fc655be083528U, 0xbe8835283d359c35U, 0x3e53e0e83cf2259cU,
  0x3d53e0e83ea679dbU, 0x3d883528bd883528U, 0x3e6a946fbdc4be8fU, 0x3ee303423f2a4272U,
  0xbf193bcd3e630342U, 0x3ec0f5f8bd175782U, 0xbe938eebbeb964cbU, 0xbd53e0e83e359c35U,
  0xbe79b6c93f33b7eaU, 0x3ec887253ea679dbU, 0xbe938eeb3f046c91U, 0xbf55c5343e5b7215U,
  0xbdf2259cbe0fc655U, 0xbf40f5f8bed01852U, 0xbe0fc655bd53e0e8U, 0x3cb59c35be883528U,
  0xbe883528be8fc655U, 0xbea2b1453db59c35U, 0xbde30342bf028846U, 0xbe3d2d62bd359c35U,
  0x3e80a3fbbedb7215U, 0x3e3d2d623f2a4272U, 0xbec88725be72259cU, 0xbe1ee8aebd359c35U,
  0xbcb59c35U, 0x3cf2259c3de30342U, 0xbc72259cbdb59c35U, 0x3eaa42723e3d2d62U,
  0x3efd7f5f3f2679dbU, 0x3e1757823dd3e0e8U, 0x3e53e0e8be0fc655U, 0xbe1757823f488725U,
  0xbea679db3e4c4fbcU, 0x3ee30342beae0b08U, 0x3ed7a97fbe9b2018U, 0x3e0fc655U,
  0x3d359c35bf285e26U, 0xbebd2d623f1ee8aeU, 0xbf0835283f138eebU, 0x3d8835283e6a946fU,
  0x3dd3e0e8bedf3aacU, 0xbe79b6c93eb59c35U, 0x3e1ee8aebefd7f5fU, 0xbedb72153bf2259cU,
  0xbea679db3ec0f5f8U, 0x3e53e0e8bf704151U, 0x3cb59c353de30342U, 0x3c72259c3f46a2daU,
  0x3eb964cb3f1b2018U, 0x3ef2259cbda679dbU, 0xbd8835283f138eebU, 0x3ed7a97f3ee6cbd9U,
  0x3f15d9333e97883aU, 0xbdca0af73f1ae646U, 0x3e285e79U, 0xbd21a260befc8db5U,
  0x3d72738f3e2f1a92U, 0x3ef92fa93e8a1007U, 0xbea5006c3d57832aU, 0x3bd7832a3ec34edeU,
  0xbd86b1fa3f3934b8U, 0x3eb934b83e1ae646U, 0xbc57832abdffebc2U, 0x3e2f1a923e9ae646U,
  0x3e97883a3eaf1a92U, 0xbdbc92c53ee85969U, 0x3ca1a2603e285e79U, 0xbdf2738fU,
  0x3f2bbc853da1a260U, 0xbe57832a3cd7832aU, 0xbe21a260be9ae646U, 0x3bd7832abdaf1a92U,
  0x3ea1a2603e97883aU, 0xbdbc92c53dca0af7U, 0x3eaf1a92bca1a260U, 0xbd06b1fa3d06b1faU,
  0x3c57832abe142a2dU, 0x3f4f180a3e142a2dU, 0x3ed4251dbd06b1faU, 0xbc57832abe06b1faU,
  0x3da1a2603f0f1d1aU, 0x3e5e3f433e792fa9U, 0x3ebc92c53e0d6e14U, 0xbd06b1fa3e2f1a92U,
  0xbd3c92c53eca0af7U, 0xbe5e3f433ede3f43U, 0x3f55d424be57832aU, 0x3d86b1fa3ed0c711U,
  0x3de4fb5d3efc8db5U, 0x3d86b1fa3d06b1faU, 0xbd57832a3ea5006cU, 0x3e0d6e143f06b1faU,
  0xbe4a0af73dbc92c5U, 0x3d57832aU, 0xbea5006c00000000U, 0x3e50c711be35d6abU,
  0x3e9e44533e792fa9U, 0x3dbc92c53e8d6e14U, 0x3dd7832a3e2f1a92U, 0x3eaf1a923e6bb776U,
  0x3ca1a2603e35d6abU, 0x3efc8db5bbd7832aU, 0x3dffebc2be21a260U, 0xbdffebc23c57832aU,
  0x3f01a4e7U, 0x3e90cc203dffebc2U, 0x3e8353ee3eca0af7U, 0x3df2738f3ca1a260U,
  0x3f0f1d1a3e64fb5dU, 0x3e285e793e7febc2U, 0x3d57832abcd7832aU, 0xbec34ede3ca1a260U,
  0xbec34ede3e86b1faU, 0xbd86b1fa3ea85e79U, 0x3bd7832abe792fa9U, 0xbdbc92c53d57832aU,
  0x3ee68f393ec4670bU, 0x3eb352f3be307a45U, 0xbeb07a453d9f662eU, 0xbd940374bdef1945U,
  0xbd4cf1163dc18e5cU, 0x3d4cf1163d4cf116U, 0x3d63b68a3dd853d0U, 0x3c362ba23dccf116U,
  0x3de3b68a3e3bdcffU, 0x3f0ce5bfbbb62ba2U, 0xbe19b4d13c88a0baU, 0x3de3b68abe5853d0U,
  0x3e2ac8e8bc88a0baU, 0xbe08a0ba3ebbdcffU, 0x3e8e52173d362ba2U, 0x3d9f662e3daac8e8U,
  0x3eca18683eca1868U, 0xbe6967e83ce3b68aU, 0xbd7a7bffbdaac8e8U, 0x3d1f662ebeb07a45U,
  0xbd9f662ebe08a0baU, 0xbe8b79683d9f662eU, 0xbd7a7bffbe08a0baU, 0x3dd853d03e74caa2U,
  0xbe4cf1163ec73fb9U, 0x3eccf1163ec4670bU, 0x3dccf116bd4cf116U, 0xbd08a0ba3ec4670bU,
  0x3dd853d03e99b4d1U, 0x3e5e052d3e74caa2U, 0x3e6f19453e25178bU, 0x3e362ba2bd9f662eU,
  0x3dccf1163e307a45U, 0xbe307a45bc362ba2U, 0x3e418e5c3d362ba2U, 0xbd9f662e3d4cf116U,
  0x3d08a0ba3f34bf4bU, 0x3e6967e8bbb62ba2U, 0x3e362ba23e96dc22U, 0xbdccf1163e6967e8U,
  0xbf0016ae3e140374U, 0xbdccf116bdb62ba2U, 0xbdfa7bffbd940374U, 0xbd08a0babe140374U,
  0xbd9f662e3dc18e5cU, 0xbe7a7bff3e307a45U, 0xbdef1945bdccf116U, 0xbe912ac53eccf116U,
  0x3dccf1163f25178bU, 0x3daac8e83d7a7bffU, 0x3e2ac8e83e8016aeU, 0xbdc18e5c3e6f1945U,
  0xbd08a0ba3e99b4d1U, 0x3eb07a45bdaac8e8U, 0x3def19453e85c80bU, 0xbe85c80b3d1f662eU,
  0x3ea7f039bdc18e5cU, 0x3d08a0babe1f662eU, 0xbe19b4d13d63b68aU, 0xbea23edcbea7f039U,
  0xbef1f1f3be307a45U, 0xbe912ac53d88a0baU, 0xbbb62ba23c88a0baU, 0xbe74caa23ebbdcffU,
  0x3ecff8233ec35d77U, 0x3ef2a17f3ef8eed5U, 0x3dfc1580be17401aU, 0xbc49aacd3edfb97bU,
  0x3f02c4c13eb39c1fU, 0x3f307573be845817U, 0x3dc9aacdbe877ec2U, 0x3e8dcc183e7c1580U,
  0xbe17401a3e4ff823U, 0x3e8aa56d3e9d8d70U, 0xbdef7ad33d17401aU, 0xbe0458173e6f7ad3U,
  0x3e17401abe307573U, 0x3ea0b41b3ecff823U, 0x3f02c4c13e10f2c3U, 0x3ec35d773e3d1020U,
  0x3e5c92d0be5c92d0U, 0x3e56457a3e4ff823U, 0xbe36c2cabcc9aacdU, 0x3c49aacd3e307573U,
  0x3f02c4c13eaa281dU, 0x3e81316bbe9a66c5U, 0x3ea0b41b3e0aa56dU, 0x3edc92d0bc49aacdU,
  0x3d3075733c97401aU, 0x3e23dac73e045817U, 0x3da3dac7bd49aacdU, 0xbcc9aacd3d49aacdU,
  0x3e0aa56d3e045817U, 0x3e49aacd3f01316bU, 0x3e97401a3e97401aU, 0x3cc9aacd3da3dac7U,
  0x3d3075733eaa281dU, 0x3e10f2c3bf01316bU, 0xbdbd10203f481777U, 0xbd62e027bc97401aU,
  0x3e6f7ad33f18d36fU, 0x3c49aacdbe36c2caU, 0xbda3dac73dbd1020U, 0xbe6f7ad3bd7c1580U,
  0x3e0aa56dbc49aacdU, 0x3f1bfa1b3e94196fU, 0x3ec9aacdbd97401aU, 0xbbc9aacdbe435d77U,
  0xbe7c1580bea3dac7U, 0xbea0b41b3cc9aacdU, 0xbe17401abeaa281dU, 0xbebd1020be2a281dU,
  0xbdb075733e8aa56dU, 0x3da3dac7be2a281dU, 0x3e10f2c33ecff823U, 0xbd7c15803cc9aacdU,
  0xbd3075733e36c2caU, 0x3e94196fbead4ec8U, 0x3e877ec2bdc9aacdU, 0x3dc9aacdbe692d7dU,
  0x3e97401a3e435d77U, 0x3e1d8d70bd62e027U, 0x3e6f7ad33d17401aU, 0x3e49aacdbc49aacdU,
  0xbea0b41b3e6f7ad3U, 0x3e1d8d7000000000U, 0xbdb075733db07573U, 0x3d17401a3e045817U,
  0x3dd3ff7c3e53ff7cU, 0x3ef0e8253de74542U, 0xbe3be8463dad73f2U, 0x3e2d73f2be89511fU,
  0x3c674542be6273d1U, 0x3e458b28be4a5c9aU, 0xbe9a2e2c3df0e825U, 0xbe23d10f3d908b49U,
  0x3df0e825be28a280U, 0xbe6745423e06e866U, 0xbe4a5c9abc674542U, 0xbdd3ff7c3f047faeU,
  0x3f0216f5bdfa8b08U, 0x3f18f9d0bc1a2e2cU, 0x3eccc5523eb716d4U, 0x3e75b996be75b996U,
  0x3e7f5c793eec16b3U, 0x3ea3d10fbd86e866U, 0xbd2d73f23e3716d4U, 0xbd2d73f2be155cbbU,
  0x3f05b40a3e4f2e0bU, 0x3d1a2e2c3ddda25fU, 0x3e06e8663c1a2e2cU, 0x3e3716d43efa8b08U,
  0x3d86e8663ecf2e0bU, 0x3eff5c793e8e2291U, 0x3f14285ebcc0b9b7U, 0xbe1eff9d3e108b49U,
  0xbd86e8663e7a8b08U, 0x3e9a2e2c3edda25fU, 0x3dfa8b083e108b49U, 0xbc9a2e2cbe847faeU,
  0x3c9a2e2cbd2d73f2U, 0xbb9a2e2c3d9a2e2cU, 0x3e847fae3f00e299U, 0xbd674542bdd3ff7cU,
  0xbc9a2e2c3de74542U, 0x3e32456300000000U, 0x3e4f2e0b3e06e866U, 0x3e4a5c9a3ddda25fU,
  0xbe908b49bd53ff7cU, 0xbdca5c9a3de74542U, 0x3e0216f53d1a2e2cU, 0x3e6c16b3bcc0b9b7U,
  0x3dad73f2be70e825U, 0xbce745423e108b49U, 0x3e0bb9d83e847faeU, 0xbe8216f53ec58b28U,
  0x3d6745423ea639c7U, 0xbd06e8663e28a280U, 0x3e7f5c79be155cbbU, 0xbe324563bd908b49U,
  0x3e75b9963f108b49U, 0x3e4f2e0b3e458b28U, 0x3d40b9b73f0a857cU, 0x3d908b49bea639c7U,
  0x3e2d73f2becf2e0bU, 0xbd40b9b7be324563U, 0xbe4a5c9abe28a280U, 0x3b9a2e2cbe458b28U,
  0xbe955cbbbeff5c79U, 0xbe5da25f3e155cbbU, 0xbe3be846bf17c573U, 0xbef8224f3f17c573U,
  0xbd711457bedcfd50U, 0xbddcfd503eb4cf41U, 0x3f1bb2783d711457U, 0x3ca0b83aU,
  0x3ca0b83abe8ca133U, 0xbf1429d5bf7da2bcU, 0xbec3e087be6708d3U, 0x3e3edac5bedcfd50U,
  0xbdb4cf413d48e648U, 0x3e6708d3bd8ca133U, 0x3f0295af00000000U, 0xbc20b83a3d711457U,
  0x3e7114573f2840ddU, 0x3e8ca133bf0012ceU, 0xbedcfd503d8ca133U, 0x3eafc97f3f0ca133U,
  0xbf0f24143e8295afU, 0x3e2ac3bebe16acb6U, 0x3e711457be5cfd50U, 0xbd20b83a3e20b83aU,
  0xbecdec0a3ed2f1ccU, 0xbf20b83abf2fc97fU, 0xbd8ca1333f2ac3beU, 0xbef61a193e0ca133U,
  0xbee20312be96acb6U, 0xbe9bb2783d48e648U, 0xbeb9d5033dc8e648U, 0x3e5cfd503d48e648U,
  0xbca0b83a3e48e648U, 0xbddcfd503eafc97fU, 0x3e7b1fdbbe91a6f5U, 0xbcf114573e0ca133U,
  0xbe48e6483e20b83aU, 0x3e7114573f9f76caU, 0xbdc8e648bf11a6f5U, 0xbe8ca133be52f1ccU,
  0xbda0b83aU, 0xbe3edac53e0295afU, 0xbd7114573ec8e648U, 0xbe0295af3ed2f1ccU,
  0x3ef114573e7b1fdbU, 0x3e7b1fdb3e2ac3beU, 0xbe6708d3bda0b83aU, 0x3d8ca133be2ac3beU,
  0xbd20b83aU, 0x3ed7f78ebf0012ceU, 0x3f16acb63ca0b83aU, 0x3e0ca1333dc8e648U,
  0xbd20b83abe8ca133U, 0x3ddcfd503ec8e648U, 0xbe9bb2783e8ca133U, 0xbe0ca1333e20b83aU,
  0x3e5cfd503db4cf41U, 0x3e34cf413c20b83aU, 0xbdf11457beafc97fU, 0x3ddcfd503e3edac5U,
  0x3e0ca1333f16acb6U, 0x3f25bdfc3dc8e648U, 0x3e879b713c20b83aU, 0x3d20b83a3f9429d5U,
  0x3d8ca1333ee20312U, 0x3f0a1e52bda0b83aU, 0x3e48e6483d711457U, 0x3ebedac53ef61a19U,
  0xbda55e15bd455fc7U, 0xbc5560a03da55e15U, 0x3d0ab2013d880733U, 0x3c400a29bd4ab565U,
  0xbcd560a0bc0006c6U, 0xbe0eb238bda00878U, 0x3d300951bd600bdbU, 0x3ce00bdbbd880733U,
  0x3c8006c6bdd560a0U, 0x3d10079f3d355eeeU, 0xbdf2b7833c0006c6U, 0xbdc2b4f8bc155d3dU,
  0xbbd560a03c8ab201U, 0xbded61e53d600bdbU, 0x3dd00b02bdb809bdU, 0xbdb00951U,
  0x3d0ab201bd98080bU, 0xbcb55eeebdc80a96U, 0xbcc00a29bddd610cU, 0xbc955d3d3d255e15U,
  0x3da808e43da808e4U, 0xbcf56251be055c64U, 0xbdcab565bc155d3dU, 0xbd600bdb3c2ab3b3U,
  0x3d200878bd500b02U, 0xbb2ab3b3bdaab3b3U, 0xbe295e4cbe1c0842U, 0x3d600bdb3d656179U,
  0x3d055c64bd880733U, 0xbe0eb238bcaab3b3U, 0x3df56251bca00878U, 0xbd656179bc8ab201U,
  0xbdb55eeebb2ab3b3U, 0xbd600bdbbd4ab565U, 0xbe02b195bd5560a0U, 0xbda55e15bcc00a29U,
  0xbdd2b5d13d400a29U, 0x3d7562513db00951U, 0x3d5560a03ceab716U, 0xbd9ab2dabc0006c6U,
  0x3da008783d6ab716U, 0xbc6ab7163d5560a0U, 0xbe0ab201bdb2b41fU, 0xbd3009513da808e4U,
  0xbdb55eeebdeab716U, 0xbcb55eee3d8ab201U, 0xbe12b26ebd600bdbU, 0xbdcab5653d92b26eU,
  0x3d300951be06b1cbU, 0xbceab716bdc55fc7U, 0x3baab3b3bd92b26eU, 0xbd0ab201bdd2b5d1U,
  0xbc8006c63d255e15U, 0xbdd00b02bdb809bdU, 0xbd8d5cd0be02b195U, 0xbd2ab3b33dd560a0U,
  0x3d10079fbaaab3b3U, 0xbd600bdbbe0eb238U, 0x3aaab3b33d200878U, 0xbd955d3d3e02b195U,
  0xbccab5653d955d3dU, 0x3d92b26e3de2b6aaU, 0x3c155d3dbdf2b783U, 0x3cd560a0bdad5e82U,
  0x3f0dd6893d38b823U, 0x3eb56bb53f51755fU, 0xbd9e54b0bd9122f7U, 0xbe45e9dd3ee6e62cU,
  0x3f4790143d38b823U, 0x3e946f65bd83f13eU, 0x3ecc82b93de04d4fU, 0x3ef417e5be24ed8dU,
  0x3e0a8a1a3ee399beU, 0x3ea839fc3e66e62cU, 0xbe03f13e3c531b96U, 0xbe97bbd400000000U,
  0x3e9b0842bd9122f7U, 0x3e80a4cf3ee6e62cU, 0x3ea839fc3f03f13eU, 0x3f1e54b03f12c92eU,
  0xbd531b96bdd31b96U, 0x3d83f13ebdab866aU, 0x3d38b8233cd31b96U, 0x3dd31b96U,
  0x3e03f13e3d1e54b0U, 0x3e59b4733ee04d4fU, 0x3d6d7f093ea4ed8dU, 0x3e66e62c3ea1a11fU,
  0x3e59b4733d6d7f09U, 0xbc531b963dc5e9ddU, 0x3e6d7f09bdc5e9ddU, 0x3c531b963cd31b96U,
  0x3e8a8a1a3ed31b96U, 0x3e7ab0c23e9122f7U, 0x3e321f473dc5e9ddU, 0xbd38b8233ded7f09U,
  0xbd1e54b03d38b823U, 0xbc531b96be9122f7U, 0x3dab866a3ed66804U, 0xbe83f13ebdab866aU,
  0xbded7f093e8a8a1aU, 0x3e321f47be0a8a1aU, 0xbc531b96be3f5100U, 0xbdfab0c23e7ab0c2U,
  0x3ee6e62cbe2b866aU, 0x3f073dac3ed31b96U, 0x3e6d7f093dc5e9ddU, 0x3e4c82b93e321f47U,
  0x3e531b96bcd31b96U, 0x3e1122f7be03f13eU, 0x3dc5e9ddbd531b96U, 0x3d1e54b0be531b96U,
  0x3d531b96bded7f09U, 0xbe9e54b03f234756U, 0x3d83f13ebe97bbd4U, 0xbd38b8233d531b96U,
  0xbe2b866a3eb56bb5U, 0x3bd31b96bdc5e9ddU, 0x3ebc04923e38b823U, 0x3dfab0c23de04d4fU,
  0xbe59b473bd03f13eU, 0x3e59b473bd531b96U, 0x3d03f13e00000000U, 0x3e7417e53c9e54b0U,
  0x3e83f13e3eb56bb5U, 0x3e97bbd43e2b866aU, 0xbe531b963e7417e5U, 0xbe24ed8d3bd31b96U,
  0x3d8b9bb1bc4b1101U, 0x3d184cc13eedf7edU, 0xbccb11013da4fdd1U, 0xbe7124313df12431U,
  0xbbcb11013c4b1101U, 0x3e5e1a993d31aee1U, 0xbd6473213e2b5659U, 0xbbcb1101bd647321U,
  0x3da4fdd13e380769U, 0xbdd7c2113d4b1101U, 0xbe984cc1bdbe5ff1U, 0x3e1ea549be647321U,
  0xbd184cc1bc984cc1U, 0xbe777cb93ea82a15U, 0x3d184cc1bde47321U, 0x3e8543293e516989U,
  0x3ede1a993e712431U, 0xbe2b56593ee79f65U, 0xbe5169893c4b1101U, 0x3dcb11013d7dd541U,
  0x3da4fdd13e2b5659U, 0x3e9ea5493e886f6dU, 0x3e777cb9bd647321U, 0x3e95207d3ef77cb9U,
  0xbcfdd5413e9ea549U, 0x3e8543293e95207dU, 0x3e7dd541bdbe5ff1U, 0x3e8ec7f53f0b9bb1U,
  0x3e8ec7f53ea82a15U, 0xbd31aee13d184cc1U, 0x3e886f6d3eab5659U, 0x3ea1d18d3e9ea549U,
  0x3c984cc13d8b9bb1U, 0xbe95207d3d8b9bb1U, 0xbbcb11013e3e5ff1U, 0x3d984cc1bdcb1101U,
  0x3d8b9bb13f497adfU, 0x3df124313d31aee1U, 0x3e8ec7f53e8ec7f5U, 0x3e886f6d3ee47321U,
  0x3dbe5ff1bc4b1101U, 0x3e6acba93d984cc1U, 0xbe1ea549bc4b1101U, 0x3e8b9bb1bbcb1101U,
  0x3dcb11013ea1d18dU, 0x3e3807693e6acba9U, 0x3dd7c2113d8b9bb1U, 0x3bcb11013c4b1101U,
  0xbe24fdd13ed16989U, 0xbe516989bda4fdd1U, 0x3e712431bf0a058fU, 0x3c984cc1bdfdd541U,
  0xbc4b11013e516989U, 0xbd184cc13da4fdd1U, 0x3e777cb93e9ea549U, 0x3c984cc13eb4db25U,
  0xbd31aee1be8216e5U, 0xbefdd5413d4b1101U, 0xbe91f4393c4b1101U, 0xbdd7c211be57c211U,
  0x3ea4fdd13d8b9bb1U, 0x3dbe5ff13dfdd541U, 0xbdfdd5413d647321U, 0xbde47321be6acba9U,
  0x3e966cf93eed83a4U, 0xbe2e2d563dc8914cU, 0xbe239ef43e239ef4U, 0x3d9e57c3bea0fb5bU,
  0xbd893afe3e72cad5U, 0x3c7d59383ea39ef4U, 0xbe434a1b3df2cad5U, 0x3e8150343f1125c8U,
  0xbdbe02ea3e8e822fU, 0x3f17bec53ee051a9U, 0x3e966cf9be1e57c3U, 0x3e0e822f3ecdd87dU,
  0xbcfd59383eb8bbb8U, 0xbd13c9603e9bb42aU, 0x3cd31faebd531faeU, 0x3d531faebe38bbb8U,
  0x3e239ef4beb8bbb8U, 0xbebb5f513db37487U, 0x3e337487bd93c960U, 0xbca8e6253e781206U,
  0x3ea6428c3e093afeU, 0x3d531faebdb37487U, 0x3f015034bd683c73U, 0x3e991092bdb37487U,
  0x3d683c73becb34e5U, 0x3f1e57c3be8bde97U, 0x3e683c733d9e57c3U, 0xbe5dae113ebb5f51U,
  0xbe1e57c33d28e625U, 0x3e683c73be3e02eaU, 0x3e3374873e5dae11U, 0x3d893afe3edb0a78U,
  0xbd893afe3e8bde97U, 0xbde83c733cd31faeU, 0x3e3374873de83c73U, 0xbe893afe3e8bde97U,
  0x3e1910923e781206U, 0x3e239ef43e1e57c3U, 0x3d93c9603ef81206U, 0xbca8e6253e93c960U,
  0xbe0e822fbd93c960U, 0x3e2e2d563d9e57c3U, 0xbec0a6823e13c960U, 0x3ba8e625be531faeU,
  0xbd13c9603cd31faeU, 0xbd683c733dddae11U, 0x3da8e625bdc8914cU, 0x3e434a1bbdbe02eaU,
  0x3e7d5938bdd31faeU, 0x3f279459be8e822fU, 0xbe0e822f3e5dae11U, 0xbe6d83a4U,
  0xbe38bbb8be093afeU, 0xbd683c733e0e822fU, 0x3dddae113e893afeU, 0xbe1e57c3bdf2cad5U,
  0x3e093afe3d683c73U, 0x3e1910923e6d83a4U, 0x3ed866dfbca8e625U, 0xbdb37487bd93c960U,
  0xbd683c73U, 0xbe2e2d563dd31faeU, 0x3e2e2d563db37487U, 0xbcfd59383e1e57c3U,
  0x3f0ac77dbdd0fc37U, 0xbcd0fc373f14934fU, 0xbe6b1bbe3d029da2U, 0xbd829da2bcd0fc37U,
  0x3d50fc37bead10deU, 0xbd9cbd29be782b81U, 0xbea0011abeb6dcb0U, 0x3cd0fc373d829da2U,
  0xbe5784193f163548U, 0x3f07838c3e71a3a0U, 0x3d1cbd293deb1bbeU, 0x3e0925843ea3450bU,
  0xbd50fc373eee5fafU, 0xbd6b1bbe3f14934fU, 0xbdde0bfa3e029da2U, 0x3ea688fcbef4e790U,
  0x3f3f068abecdb846U, 0xbd1cbd293da9ccedU, 0x3dde0bfabdeb1bbeU, 0x3d029da2bcd0fc37U,
  0x3ead10debf092584U, 0xbe5784193d8fad66U, 0xbc9cbd29bead10deU, 0x3e36dcb0be163548U,
  0xbe3054ce3e7eb363U, 0x3ead10de3f00fbaaU, 0x3da9cced3d1cbd29U, 0xbda9cced3d50fc37U,
  0x3e0925843df82b81U, 0x3e5e0bfabd50fc37U, 0x3e8c6975bd829da2U, 0x3d8fad66be29ccedU,
  0xbe23450b3f3d6492U, 0x3df82b81bd029da2U, 0x3d029da2be782b81U, 0x3e0925843ead10deU,
  0xbbd0fc373ef4e790U, 0x3eeb1bbebd8fad66U, 0x3e029da23efb6f72U, 0xbe29cced3f2b6ee5U,
  0x3dc3ec74bed78419U, 0x3d6b1bbe3ede0bfaU, 0xbe92f157bbd0fc37U, 0x3d9cbd29bf4f5a3fU,
  0xbda9ccedbf07838cU, 0xbe963548bbd0fc37U, 0x3edac80abea9ccedU, 0xbe3054cebea688fcU,
  0xbdd0fc373f197938U, 0x3f029da2be8c6975U, 0x3e1cbd293d8fad66U, 0x3d6b1bbe3d6b1bbeU,
  0xbe3d64923e997938U, 0x3e8fad66be8fad66U, 0x3e0925843ea3450bU, 0x3d50fc373db6dcb0U,
  0x3eca7455be829da2U, 0x3ead10de3eb054ceU, 0x3c9cbd293e092584U, 0xbcd0fc37U,
  0xbef4e790bea9ccedU, 0xbe71a3a03d36dcb0U, 0xbdf82b81bee7d7cdU, 0xbd829da23d829da2U,
  0x3db5b5bd3eedd383U, 0x3e2b05673dab0567U, 0xbe2b05673d95a4baU, 0x3de07717be059c38U,
  0xbe25ad3c3eb309a8U, 0x3de0771700000000U, 0xbe4b166a3d406614U, 0x3d80440d3ef32baeU,
  0xbda055113bab0567U, 0x3f02f0233edb1eecU, 0x3ecdc280bcab0567U, 0xbdb5b5bd3e8af464U,
  0x3d80440d3e707f99U, 0x3f1da8fb3e9afce5U, 0x3e059c383e35b5bdU, 0x3e2055113d55c6c1U,
  0x3d6b276ebea30126U, 0xbc80440d3e059c38U, 0x3db5b5bd3e406614U, 0xbdeb276ebcab0567U,
  0x3f29af5c3dc06614U, 0xbe15a4babe059c38U, 0xbe00440dbe95a4baU, 0x3eab05673db5b5bdU,
  0x3da055113ea5ad3cU, 0x3ee87b58bd6b276eU, 0x3ec06614bd406614U, 0xbe1afce53df5d7c4U,
  0x3cab05673dd5c6c1U, 0x3e95a4ba3d2b0567U, 0xbd2b05673d8af464U, 0xbdc06614be2b0567U,
  0xbd00440d3e0af464U, 0x3d2b05673e859c38U, 0x3e6b276e3ea30126U, 0xbe0af4643e707f99U,
  0xbda055113e2b0567U, 0xbc2b05673dab0567U, 0x3e1afce53f0da079U, 0x3bab0567bc2b0567U,
  0x3e00440dbe82f023U, 0x3e75d7c43de07717U, 0x3d95a4ba3dd5c6c1U, 0x3cab0567beddcb02U,
  0xbbab0567bdcb166aU, 0xbd2b05673e059c38U, 0xbd00440dbe65cf42U, 0x3bab05673e406614U,
  0x3d95a4ba3e059c38U, 0x3da05511be059c38U, 0x3d8af4643e00440dU, 0xbe2055113e75d7c4U,
  0xbdc066143e75d7c4U, 0x3dd5c6c1U, 0xbe35b5bdbe1afce5U, 0x3d15a4babe15a4baU,
  0x3d6b276ebeb861d3U, 0x3d00440d3e00440dU, 0xbd6b276ebd406614U, 0x3bab0567be9da8fbU,
  0xbe4b166abe6b276eU, 0xbe8af464be80440dU, 0xbdcb166aU, 0xbe707f99bd6b276eU,
  0xbe41c3f23ebb1577U, 0x3ecf20e8be19ad0fU, 0xbd92fe943dc8726dU, 0xbd3b1577be69dad4U,
  0xbe88f8db3f009ec2U, 0x3e205b8a3f1b58aeU, 0xbd05a19e3ed27825U, 0x3d05a19e3f5423c4U,
  0xbda05b8abe19ad0fU, 0x3e3466fc3eb10fbeU, 0x3e19ad0f3d55cf63U, 0x3e3466fc3e632c59U,
  0x3e48726dbe8c5019U, 0x3df0894fbd05a19eU, 0x3e270a053e7737caU, 0x3ea3b2c83dbb1577U,
  0xbe41c3f2be48726dU, 0x3f009ec2bc55cf63U, 0xbd205b8a3df0894fU, 0x3e69dad4be3b1577U,
  0xbc55cf633df0894fU, 0x3f0aa47aU, 0x3e55cf633d3b1577U, 0x3da05b8a3e41c3f2U,
  0x3e12fe943d05a19eU, 0xbd05a19e3e55cf63U, 0x3ecbc9aabc55cf63U, 0x3ca05b8a3d205b8aU,
  0xbdc8726dbdbb1577U, 0x3e0c50193ca05b8aU, 0x3dc8726d3bd5cf63U, 0xbe270a05bdbb1577U,
  0xbe205b8a3cd5cf63U, 0xbe2db880bdadb880U, 0xbd85a19e3e8c5019U, 0xbe92fe943e4f20e8U,
  0xbd85a19ebe05a19eU, 0xbd05a19e3e0c5019U, 0xbd55cf63be48726dU, 0x3dd5cf633df0894fU,
  0xbe4f20e8bed27825U, 0xbdd5cf63bd85a19eU, 0xbef0894fbe7737caU, 0xbf12fe94be92fe94U,
  0xbf08f8dbbe05a19eU, 0xbeadb880bd70894fU, 0xbe632c59befde646U, 0xbf08f8db3e0c5019U,
  0xbda05b8abd05a19eU, 0xbdadb880bdf0894fU, 0x3e48726d3dbb1577U, 0xbe4f20e8bde32c59U,
  0xbe05a19ebdfde646U, 0xbbd5cf63bca05b8aU, 0xbd85a19e3dfde646U, 0x3c55cf63be8c5019U,
  0xbec51b2fbe9d044dU, 0xbea05b8abe9d044dU, 0xbeb10fbebcd5cf63U, 0xbed27825be270a05U,
  0xbe632c59be19ad0fU, 0xbe69dad4bcd5cf63U, 0xbe824a60be205b8aU, 0xbecbc9aa3dd5cf63U,
  0x3ee34fff3dad30c2U, 0xbe091bef3ed4e144U, 0x3f0cb79ebeca0e38U, 0x3dad30c23d9ec208U,
  0x3f178aaabd66ebaeU, 0x3ed4e1443e10534dU, 0x3e01e492be4a0e38U, 0x3e8cb79e3e346820U,
  0x3d90534d3d10534dU, 0x3f4bdc103f1b2659U, 0x3dd87cf3bc66ebaeU, 0xbce6ebae3d4a0e38U,
  0x3e3468203ce6ebaeU, 0x3f1cf4303d90534dU, 0x3e93eefb3d4a0e38U, 0x3ef8f6183e10534dU,
  0x3dad30c23e755a69U, 0x3ef1beba3d10534dU, 0xbe42d6db3e01e492U, 0xbd4a0e383e66ebaeU,
  0x3e6e230b3ec6728aU, 0x3ec2d6db3ecda9e7U, 0x3ea25db63d2d30c2U, 0x3eca0e38bd90534dU,
  0x3ea25db63cad30c2U, 0x3c66ebae3e091befU, 0x3e01e492be091befU, 0xbdca0e383e4a0e38U,
  0xbd4a0e38bdca0e38U, 0x3e978aaabe891befU, 0x3e346820bd81e492U, 0x3eb0cc713e978aaaU,
  0x3d81e4923ec2d6dbU, 0x3ebb9f7dbf208fdfU, 0xbdbb9f7d3eea875dU, 0xbd9ec2083e8cb79eU,
  0x3e9ec2083de6ebaeU, 0x3f5fb451be755a69U, 0x3ce6ebae3e858041U, 0xbe1ec2083e587cf3U,
  0x3f651dd7bd4a0e38U, 0x3e3b9f7d3e7c91c6U, 0x3ead30c2be3b9f7dU, 0xbe81e492be178aaaU,
  0xbce6ebaebe25f965U, 0xbe4a0e383d81e492U, 0xbd9ec208be858041U, 0xbe978aaa3be6ebaeU,
  0x3d66ebae3f091befU, 0x3ebb9f7dbdf55a69U, 0x3e2d30c23f329a49U, 0x3de6ebae3e3b9f7dU,
  0x3e4a0e383e81e492U, 0x3f0016bbbe4a0e38U, 0xbbe6ebaebe25f965U, 0x3e42d6dbbe755a69U,
  0x3ead30c2bd10534dU, 0x3ea25db6be587cf3U, 0x3ebf3b2c3d66ebaeU, 0x3d2d30c23e587cf3U,
  0xbe091befbd81e492U, 0xbd9ec2083dad30c2U, 0xbe5fb4513d2d30c2U, 0xbd10534d3e93eefbU,
  0x3e41d07ebd943606U, 0xbe4783cd3eca5d74U, 0x3e0e82b73e30b691U, 0xbe41d07e3eec914eU,
  0x3e3c1d2fbe30b691U, 0x3d9f9ca43ce40458U, 0x3ed2ea6b3db669e0U, 0x3e8042723dd89dbaU,
  0x3cb669e0bd943606U, 0x3e08cf683d943606U, 0xbde40458bc3669e0U, 0x3bb669e0bc88cf68U,
  0xbd08cf683d1f9ca4U, 0x3e19e9553e831c19U, 0x3e0e82b7bd88cf68U, 0x3db669e03eb94388U,
  0x3cb669e03d7ad194U, 0x3e85f5c0bd943606U, 0xbd1f9ca43d88cf68U, 0x3ec4aa263def6af6U,
  0xbe2b0342bd88cf68U, 0x3e970fae3e8e82b7U, 0x3d4d371cU, 0x3e2b03423d640458U,
  0x3e7ad194bd9f9ca4U, 0xbe69b7a7bd9f9ca4U, 0xbcb669e0bd88cf68U, 0xbbb669e03f34fd0cU,
  0x3e9f9ca4bd943606U, 0x3e19e9553dd89dbaU, 0x3d3669e03d9f9ca4U, 0x3e0e82b7be143606U,
  0x3e0e82b7bbb669e0U, 0xbe2b0342be640458U, 0xbd7ad1943c3669e0U, 0xbe52ea6bbdab0342U,
  0x3e143606bcb669e0U, 0x3d3669e03d640458U, 0xbe4783cdbdab0342U, 0xbcb669e03e19e955U,
  0x3e8e82b7be9cc2fcU, 0xbce40458bd08cf68U, 0xbd88cf68bc3669e0U, 0x3dc1d07ebc3669e0U,
  0xbdef6af6be1f9ca4U, 0xbe30b691bcb669e0U, 0xbe804272be589dbaU, 0xbdef6af6be143606U,
  0x3e031c19be30b691U, 0xbe1f9ca43d88cf68U, 0x3d4d371cbe41d07eU, 0x3ce404583cb669e0U,
  0xbdfad1943e8e82b7U, 0x3dd89dba3dfad194U, 0x3dc1d07e3e4783cdU, 0xbe19e955becd371cU,
  0xbd7ad194be4d371cU, 0x3cb669e0bd88cf68U, 0x3d88cf68bd88cf68U, 0x3e831c193bb669e0U,
  0xbd7ad1943ea2764cU, 0xbcb669e0bdc1d07eU, 0xbdab03423ede5109U, 0xbdc1d07e3e3669e0U,
  0x3e0ebc4c3f00b785U, 0x3d74b082bc232057U, 0xbcf4b0823d0ebc4cU, 0x3d0ebc4cbf085d09U,
  0xbe326b5f3e3c9d65U, 0x3e81fdc53e7ee288U, 0xbe8ebc4c3c74b082U, 0xbd0ebc4c3ed1016fU,
  0xbe848a47bdd61a72U, 0x3f21da163ea093d6U, 0x3e5b3375bd98ee52U, 0x3e2d525c3dfee288U,
  0x3e2d525c3e2d525cU, 0x3dea7e7d3dc1b667U, 0x3dea7e7d3e79c985U, 0x3dea7e7dbe65657aU,
  0x3e8c2fcb3e9148cdU, 0x3e2d525cbe41b667U, 0xbeb78462U, 0x3d2320573e6f9780U,
  0x3e9b7ad33e9661d0U, 0x3e048a47be6f9780U, 0x3ed8a6f4bd4be86dU, 0x3d3784623d604c78U,
  0xbc232057bec1b667U, 0x3f13d54f3eddbff6U, 0x3e6a7e7d3d232057U, 0xbdfee2883e79c985U,
  0x3dad525c3dd61a72U, 0x3f05d0873d232057U, 0x3eafdedebd604c78U, 0x3eaac5dbbd4be86dU,
  0x3dc1b6673e1e0754U, 0x3ba32057be28395aU, 0x3e93d54f3e848a47U, 0xbc2320573e74b082U,
  0x3c2320573e93d54fU, 0x3e1e07543c74b082U, 0x3ea32057U, 0xbe4be86dbe28395aU,
  0x3e048a47be13d54fU, 0x3e7ee2883e3c9d65U, 0xbe4be86dbd8ebc4cU, 0xbd74b082be604c78U,
  0xbdad525cbccbe86dU, 0xbef73d04bdb78462U, 0x3c74b082be51016fU, 0xbe5b33753d98ee52U,
  0x3e18ee523e1e0754U, 0x3ec95bebbe18ee52U, 0xbe1e07543e8716c8U, 0xbdea7e7dbd4be86dU,
  0x3e23205700000000U, 0x3ea32057bde04c78U, 0x3da320573d0ebc4cU, 0xbd98ee52bda32057U,
  0x3ebf29e63d604c78U, 0x3ecbe86d3e7ee288U, 0x3f00b785bd232057U, 0xbe561a723ba32057U,
  0xbea093d6be5b3375U, 0xbe51016fbda32057U, 0xbe6a7e7d3dea7e7dU, 0xbef4b0823eed0afeU,
  0xbea44caa3e74f4a0U, 0x3e7aee1abea44caaU, 0xbed11bc13e1b5672U, 0x3e955cf73db33c5cU,
  0xbd274967bd274967U, 0x3e2749673ebc3294U, 0xbe0f637d3d6efb25U, 0xbeaa46243e9859b5U,
  0xbd0f637d3da74967U, 0x3d0f637d3ef7f15dU, 0xbc3f2f51bd9b5672U, 0xbc8f637d3f3db0f2U,
  0x3e6efb253e037088U, 0x3d8370883dd7153bU, 0x3e274967bc3f2f51U, 0x3c3f2f51bf037088U,
  0x3ed11bc13eb63919U, 0x3e3935d6be3f2f51U, 0xbe5d0eb63e7aee1aU, 0x3cbf2f513dd7153bU,
  0x3d2749673eaa4624U, 0x3e333c5c3ef7f15dU, 0x3e630830be5d0eb6U, 0x3dbf2f513f1b5672U,
  0xbe2d42e13ef1f7e3U, 0x3ea44caa3ee30830U, 0x3ef7f15dbdbf2f51U, 0xbdb33c5c3f0de51eU,
  0xbda749673e837088U, 0x3d8370883dfaee1aU, 0xbceefb253db33c5cU, 0x3e896a023e274967U,
  0xbcbf2f513d3f2f51U, 0xbda749673bbf2f51U, 0x3de308303ceefb25U, 0xbe57153bbe274967U,
  0xbdbf2f513e0f637dU, 0xbd2749673e037088U, 0x3e214fec3eaa4624U, 0xbdd7153bbe511bc1U,
  0xbdbf2f51be6901abU, 0x3ceefb25bc3f2f51U, 0x3de30830bd274967U, 0xbd57153b3d57153bU,
  0x3d9b5672be214fecU, 0xbeb03f9fbe6efb25U, 0x3da749673e3f2f51U, 0xbd2749673d837088U,
  0x3e866d453e096a02U, 0x3e214fecbe096a02U, 0x3e92603a3eb63919U, 0x3cbf2f513d57153bU,
  0x3e5d0eb63eaa4624U, 0x3deefb253e57153bU, 0x3ebc32943f0f637dU, 0xbdd7153bbe92603aU,
  0xbcbf2f51be7aee1aU, 0x3e8c66bf3e9b5672U, 0xbc8f637dbd6efb25U, 0xbe4b22463cbf2f51U,
  0xbd274967bd6efb25U, 0xbef1f7e33e896a02U, 0x3efaee1abe6901abU, 0xbe0370883f333c5cU,
  0x3e9d21293eae3576U, 0x3e5a9d71U, 0x3f2acb003d5a9d71U, 0x3c5a9d713eebb1beU,
  0x3eb19fec3dbf49c3U, 0x3ed732fb3dda9d71U, 0xbc5a9d71bdb19fecU, 0xbe5a9d713e23f615U,
  0xbe81cd7b3e5a9d71U, 0x3db19fec3ebbdf4dU, 0xbee847483c5a9d71U, 0x3c5a9d713e461eaeU,
  0x3e8537f1be319fecU, 0x3ec989243e53c885U, 0x3f1b6beebd08a267U, 0x3e92e1c83df5f11fU,
  0x3e88a26700000000U, 0x3d23f6153e7cc60bU, 0x3e319fecbbda9d71U, 0xbbda9d713ec61eaeU,
  0x3f164c3e3e23f615U, 0x3eb19fecbe81cd7bU, 0x3f3bdf4dbbda9d71U, 0x3f58e8363de84748U,
  0xbe75f11fbe4cf39aU, 0x3e3874d73ec61eaeU, 0xbe2acb00bd08a267U, 0xbd964c3e3f1d2129U,
  0x3e461eae3ea7608bU, 0x3ed05e103e164c3eU, 0xbcda9d713e7cc60bU, 0x3e964c3e3e3f49c3U,
  0x3d88a2673e1d2129U, 0x3e3874d7be2acb00U, 0x3e8537f13f01cd7bU, 0x3d75f11fbe964c3eU,
  0x3e81cd7b3ea7608bU, 0x3d75f11fbd5a9d71U, 0xbe3f49c33ea7608bU, 0x3db19fecbf1b6beeU,
  0x3d08a267be3f49c3U, 0x3eef1c343e164c3eU, 0x3f001840bdb19fecU, 0x3da3f615be8c0cdcU,
  0xbe23f615bc5a9d71U, 0xbe2acb00be2acb00U, 0xbdda9d713e684748U, 0xbe6847483e3874d7U,
  0x3e8f77523f001840U, 0x3e88a2673bda9d71U, 0x3f0382b63e61725dU, 0x3ca3f615bcda9d71U,
  0x3e3874d73f1d2129U, 0x3e08a2673d88a267U, 0x3cda9d713e9d2129U, 0x3e964c3e3cda9d71U,
  0x3f112c8d3dbf49c3U, 0x3eb50a623dccf39aU, 0x3ea7608bbe2acb00U, 0x3c5a9d713e319fecU,
  0xbdccf39abe8f7752U, 0xbe8537f1be164c3eU, 0x3da3f615bede07e7U, 0xbca3f6153ec98924U,
  0xbd201347bf25cad3U, 0xbda013473f18edd9U, 0x3e3139ea3d893518U, 0xbdb6f1763ea2ef0dU,
  0x3f0935183d893518U, 0x3e7b8c023ea2ef0dU, 0x3f161213bdfb8c02U, 0x3ea2ef0dbe201347U,
  0xbdcdcfa53e201347U, 0x3eae5e24bd36f176U, 0xbdcdcfa5bd7b8c02U, 0xbd94a4303ef01cebU,
  0x3e94a4303f0d7ec1U, 0x3e64add4bdab825fU, 0xbe75d477bd4dcfa5U, 0x3d2013473e0eeca4U,
  0x3f037d8dbd7b8c02U, 0x3e5387303dfb8c02U, 0x3e75d4773e701cebU, 0xbe5ef6483e64add4U,
  0x3ed0ab6bbd36f176U, 0xbcb6f1763ed38730U, 0xbcb6f1763ed38730U, 0x3f358393be80a1c7U,
  0x3e91c86a3ec2608dU, 0xbe3139ea3e36f176U, 0xbbb6f176bce4add4U, 0x3d7b8c023df01cebU,
  0x3d7b8c023db6f176U, 0x3c8935183dfb8c02U, 0x3d4dcfa53e14a430U, 0x3e80a1c73e7b8c02U,
  0xbe0935183d36f176U, 0x3e6a655f3e14a430U, 0x3e9a5bbcbe2b825fU, 0x3d64add4bd893518U,
  0xbda013473ef5d477U, 0x3e3ca9023db6f176U, 0x3c36f1763ee4add4U, 0x3e25cad33dab825fU,
  0x3dd93ebcbe42608dU, 0xbde4add43ecdcfa5U, 0x3de4add4U, 0xbe3ca902bd201347U,
  0x3e1a5bbcbda01347U, 0xbe4dcfa53e75d477U, 0x3ef2f8b1bd893518U, 0xbc8935183e8eeca4U,
  0x3d2013473f11c86aU, 0xbda01347bdcdcfa5U, 0xbe5387303bb6f176U, 0xbd7b8c023e6a655fU,
  0x3e701ceb3f245cf0U, 0x3eb6f1763e093518U, 0x3dc2608d3e36f176U, 0x3d8935183e6a655fU,
  0xbd36f176be0eeca4U, 0xbd94a430be201347U, 0xbce4add43d093518U, 0xbd36f176be6a655fU,
  0xbe1a5bbcbdfb8c02U, 0x3d0935183e6a655fU, 0xbecaf3dfbd093518U, 0x3e3139eabd7b8c02U,
  0xbb984ce33d8a05aeU, 0x3d4322833da1d1b1U, 0x3da8f54cbe07a47aU, 0x3c3e601cbdf05956U,
  0xbde6d488bdbbfee8U, 0x3ce47354bd938a7cU, 0xbc777cf1be0b3647U, 0x3d72ba8a3d72ba8aU,
  0xbcd169b8bdadb7b3U, 0x3d984ce3bd87a47aU, 0xbe0c66e13ca1d1b1U, 0xbb647354bc054347U,
  0xbd562c1f3d5169b8U, 0x3d5fb0edbdf51bbdU, 0xbb984ce3bdd88d53U, 0x3d399db5bdc32283U,
  0x3d138a7cbe171c49U, 0xbd912948bd777cf1U, 0xbb984ce3bdd169b8U, 0x3d82e2133c854347U,
  0xbdcf08853c647354U, 0x3cc7e4eabdb4db4eU, 0xbd95ebafbdb73c81U, 0x3cd169b83b984ce3U,
  0xbd0a05ae3d984ce3U, 0xbdd169b83d4ca751U, 0x3d82e213bddaee86U, 0xbdd88d53bd647354U,
  0x3ddfb0edbd8ec815U, 0x3d95ebafbd3018e6U, 0x3c0543473da432e5U, 0xbdf51bbdbdd88d53U,
  0xbc5169b8bdf77cf1U, 0xbde47354bb647354U, 0xbc5169b8bdadb7b3U, 0x3d138a7cbde935bcU,
  0xbdf2ba8a3d647354U, 0x3dd169b8bd184ce3U, 0xbcbe601cbd5169b8U, 0x3dab567fbde6d488U,
  0x3ce473543d72ba8aU, 0xbdcf08853c8ec815U, 0x3d2b567f3ca1d1b1U, 0xbe0ec815bdadb7b3U,
  0x3d269418be08d514U, 0x3d3e601cbe08d514U, 0x3d054347bcedf823U, 0xbd138a7c3a984ce3U,
  0xbdca461dbd82e213U, 0x3d8c66e1bd984ce3U, 0xbd47e4ea3c8ec815U, 0xbc3e601c3dc32283U,
  0xbc184ce3bd8c66e1U, 0x3c647354bd777cf1U, 0xbe07a47a3c854347U, 0xbda69418bdd169b8U,
  0x3d3018e6bddfb0edU, 0xbdcca7513dcca751U, 0x3dbe601cbd2b567fU, 0x3d0a05aebd8080e0U,
  0x3cbe601c3dadb7b3U, 0xbbe47354bda1d1b1U, 0xbe0080e0bdb99db5U, 0x3d9f707eU,
  0x3de830a33e029b5cU, 0xbdf6b3ad3e14bf28U, 0x3e029b5c3c911e66U, 0x3def72283d2e247aU,
  0xbe1c00ae3e111e66U, 0x3d2e247a3d89dce1U, 0x3d029b5c3e968f8aU, 0x3dfdf532bd029b5cU,
  0x3ce830a33e985febU, 0xbdbca7843e2a83b8U, 0xbd029b5cbe3565ffU, 0x3b6830a3bdcb2a8fU,
  0xbe0d7da33d111e66U, 0xbe4048473dc3e90aU, 0x3d111e663be830a3U, 0xbe4ecb513ea6e2f5U,
  0x3d6830a3bd029b5cU, 0x3def72283d029b5cU, 0x3d985feb3d9fa170U, 0xbe063c1e3e92eec7U,
  0x3d029b5c3d76b3adU, 0x3dd26c14be0d7da3U, 0x3e8d7da33def7228U, 0xbdef72283dd9ad99U,
  0x3d1fa170bd3ca784U, 0x3e1c00ae3e063c1eU, 0x3d9fa170bde830a3U, 0xbd111e663ee66042U,
  0xbdcb2a8fbe60ef1eU, 0x3b6830a3bd4b2a8fU, 0x3d89dce13e029b5cU, 0x3e829b5c3e185febU,
  0x3e029b5cbe063c1eU, 0x3d6830a3bbe830a3U, 0xbdef7228bdc3e90aU, 0xbe880c803cae247aU,
  0xbe2a83b83e1c00aeU, 0xbd6830a33d6830a3U, 0xbd111e66bcae247aU, 0xbe6bd1663e0d7da3U,
  0xbe0d7da3bd829b5cU, 0x3e3906c2bdf6b3adU, 0x3c2e247a3da6e2f5U, 0x3dd26c14bdfdf532U,
  0xbe26e2f53e063c1eU, 0x3d1fa1703d59ad99U, 0x3dd26c143df6b3adU, 0x3cae247abdd26c14U,
  0xbc2e247abe560cd6U, 0xbdf6b3adbdcb2a8fU, 0xbe7312ebbe0d7da3U, 0xbd6830a33c911e66U,
  0xbe31c53d3e3565ffU, 0xbe76b3ad3da6e2f5U, 0xbdbca7843be830a3U, 0xbe2e247abd6830a3U,
  0x3d2e247abd2e247aU, 0xbd111e66bb6830a3U, 0xbe09dce1be1fa170U, 0x3cae247abd029b5cU,
  0xbdbca784beb565ffU, 0xbdcb2a8fbe7a5470U, 0xbe5d4e5bbee66042U, 0xbe063c1ebe43e90aU,
  0x3e7b2b193ec3c379U, 0x3e4011e63f245e16U, 0xbd13bf003e22854cU, 0x3c6c64cc3e22854cU,
  0x3f494dd63ef0165fU, 0x3ea9e8733bec64ccU, 0xbddd9e7f3edd9e7fU, 0x3e6c64cc3e0c5bd9U,
  0xbdfb2b193ec011e6U, 0x3f66da6f3ee8b339U, 0x3e22854cbdfb2b19U, 0xbe47750cbe563b59U,
  0x3ddd9e7fbee8b339U, 0xbcb14b993e900d6cU, 0x3edd9e7f3ee15012U, 0x3dfb2b193ed289c6U,
  0xbe6c64cc3d6c64ccU, 0x3dc011e63ee15012U, 0x3e88aa46be22854cU, 0x3d4ed8323da2854cU,
  0x3e4ed832U, 0x3db14b993e314b99U, 0x3e29e8733e0c5bd9U, 0xbc6c64cc3e314b99U,
  0xbea636dfbcb14b99U, 0x3e6501a6bdc011e6U, 0x3d13bf00bcec64ccU, 0x3d84f8b33bec64ccU,
  0x3edd9e7f3e4011e6U, 0x3ef3c7f23dc011e6U, 0xbbec64cc3ee8b339U, 0x3e7b2b193f19495cU,
  0x3d93bf003f245e16U, 0x3db14b99be88aa46U, 0x3f6a8c02U, 0x3d84f8b33e9ed3b9U,
  0x3e38aebf3f6328dcU, 0x3e1b2226bdb14b99U, 0x3ecb269fbe977093U, 0xbdb14b99be4011e6U,
  0x3dec64ccbeec64ccU, 0x3dced8323dec64ccU, 0x3e9b2226bd6c64ccU, 0xbd13bf00be29e873U,
  0xbd314b993e314b99U, 0xbed9ecec3d13bf00U, 0xbe1b22263dfb2b19U, 0x3e7b2b193dced832U,
  0x3cec64cc3e0c5bd9U, 0x3d6c64ccbc6c64ccU, 0x3e1b22263e22854cU, 0x3e13bf00bdfb2b19U,
  0x3e563b59bd6c64ccU, 0x3ec011e63d93bf00U, 0xbe04f8b3be88aa46U, 0x3e4011e6be6501a6U,
  0x3e4ed8323db14b99U, 0x3e73c7f2beb8aebfU, 0x3ec7750cbe0c5bd9U, 0x3d13bf00bd4ed832U,
  0x3dced8323efedcacU, 0x3da2854cbcb14b99U, 0xbebc60533e47750cU, 0xbdb14b993e84f8b3U,
  0x3d1fec44bce89d7aU, 0xbe02d895bdeb09c9U, 0x3d63c4dd3d41d891U, 0xbe0a1d81bdb82756U,
  0xbdb5bb08bc9b13a7U, 0xbe067b0bbdd53b06U, 0xbc7bffefbdb82756U, 0xbdeb09c9bd506268U,
  0x3c9b13a73d87b132U, 0xbd3cfff43d6d7618U, 0x3d334eb9bdd7a754U, 0xbe0b53a8bdd53b06U,
  0xbd6d7618bdd7a754U, 0x3d9b13a73d506268U, 0x3dbcfff400000000U, 0xbdb0e26a3d8544e4U,
  0xbe163b0abdcdf61aU, 0xbcb827563be89d7aU, 0xbc87b132bc41d891U, 0x3d1fec44be102c45U,
  0xbcd53b063b1b13a7U, 0x3d91626dbd299d7fU, 0xbd8a1d81be0dbff7U, 0xbc689d7a3db0e26aU,
  0xbded76183d7bffefU, 0x3cd53b063b1b13a7U, 0x3dac09cdbd299d7fU, 0xbd8544e43d07b132U,
  0x3cf24eb5bc9b13a7U, 0x3c07b1323cc1d891U, 0xbdc444df3da25893U, 0x3dcdf61a3c7bffefU,
  0xbdf4bb043d07b132U, 0xbd5a13a3be07b132U, 0x3dc1d891be19dd80U, 0x3d3cfff4be11626dU,
  0x3ca4c4e13dc6b12eU, 0xbdbf6c42bdefe266U, 0xbe067b0b3d9d7ff6U, 0xbd8544e4bd8a1d81U,
  0xbd5eec40bdd53b06U, 0x3da4c4e1bc689d7aU, 0xbc91626d3d87b132U, 0x3bc1d8913a9b13a7U,
  0x3d7727523da25893U, 0xbdc6b12ebe02d895U, 0xbdbcfff4be0dbff7U, 0x3d63c4dd3d8c89cfU,
  0x3cae761cbe02d895U, 0xbdbf6c423c7bffefU, 0x3cc1d891bdbf6c42U, 0x3d806c463d11626dU,
  0x3d3cfff4bd724eb5U, 0xbda258933dae761cU, 0x3c41d891bc91626dU, 0x3d963b0a3d963b0aU,
  0xbdb5bb083ddc7ff1U, 0xbd334eb9bdd06268U, 0xbcae761cbd0c89cfU, 0xbe02d895bde1588fU,
  0x3dbcfff4bd98a758U, 0x3d8a1d813da25893U, 0xbbc1d891bd3cfff4U, 0x3d5a13a3bc87b132U,
  0x3ead7260be3e738cU, 0xbe59a8a03f395998U, 0xbc59a8a0bdcc0e16U, 0xbc59a8a0be74ddb4U,
  0x3f57f54fbe95a3eeU, 0x3e67432a3e30d902U, 0x3e1c7133bd233e78U, 0x3e4540d1be74ddb4U,
  0x3d95a3ee3eff119cU, 0x3dd9a8a0be4540d1U, 0xbe1c7133bda33e78U, 0xbdb0d9023e30d902U,
  0x3f013c1f3eaa0bbdU, 0x3ec1da2e3f2d7260U, 0x3e7baaf93de7432aU, 0xbe9fd7d6be923d4cU,
  0x3dcc0e163de7432aU, 0x3e9fd7d6bd95a3eeU, 0x3f06561300000000U, 0xbcd9a8a03c59a8a0U,
  0x3f013c1fbe3e738cU, 0xbd74ddb43e813c1fU, 0x3e8809643e84a2c2U, 0xbe013c1f3df4ddb4U,
  0x3da33e78bde7432aU, 0x3d233e783e9c7133U, 0x3cd9a8a03cd9a8a0U, 0xbe233e783eb43fa4U,
  0x3d0809643e080964U, 0x3e2a0bbdbec540d1U, 0x3ed641fe3d59a8a0U, 0x3de7432a3e4540d1U,
  0x3d0809643e9c7133U, 0xbdb0d9023eeaa9ccU, 0x3dd9a8a0bee3dc88U, 0x3d3e738c3e233e78U,
  0x3e013c1f3f46f422U, 0x3f395998bd080964U, 0x3df4ddb43e1c7133U, 0x3ebb0cea3f2d7260U,
  0x3e0ed6a9be4540d1U, 0xbe30d9023e30d902U, 0xbe6e106f3c59a8a0U, 0x3de7432abead7260U,
  0xbde7432a3df4ddb4U, 0x3e9c71333c59a8a0U, 0x3cd9a8a03e880964U, 0xbdbe738cbf09bcb5U,
  0xbca33e783eaa0bbdU, 0x3de7432a3dd9a8a0U, 0x3d74ddb43e67432aU, 0xbbd9a8a0bd59a8a0U,
  0x3e4c0e163ebe738cU, 0x3f328c53bbd9a8a0U, 0x3eeaa9cc3d3e738cU, 0x3d080964be880964U,
  0x3e52db5bbbd9a8a0U, 0x3e6e106fbc59a8a0U, 0x3e9fd7d6bdcc0e16U, 0x3d74ddb43e233e78U,
  0x3d95a3ee3ee075e5U, 0x3bd9a8a03d880964U, 0xbea6a51a3e013c1fU, 0x3d233e783f35f2f6U,
  0xbe076edf3ec460c3U, 0x3e197da73c58b164U, 0xbdbd9b38be82eb2dU, 0xbe301022bdc6a29cU,
  0x3d22850b3dbd9b38U, 0x3e8e346a3eb251fbU, 0x3e301022be73c791U, 0xbcfccef53eff10ceU,
  0xbd7ccef5bf0f5556U, 0x3de1b8c9be421eeaU, 0xbe3917863cb493d4U, 0xbdc6a29c3d907643U,
  0xbe58b164bc58b164U, 0x3d6ac02d3cfccef5U, 0x3eb251fbbd22850bU, 0xbeab8c703e14f9f5U,
  0x3e89b0b8be542db2U, 0x3cfccef5bd876edfU, 0xbe1076433d46a29cU, 0x3da2850bbe0bf291U,
  0xbe3010223e02eb2dU, 0x3e391786bd58b164U, 0x3db493d4be8bf291U, 0x3e2708bdbee87e54U,
  0xbd107643bd3493d4U, 0x3e9e01593dbd9b38U, 0x3e9e0159bd107643U, 0x3c9076433e3493d4U,
  0xbe9e01593cd8b164U, 0x3e3d9b38bcb493d4U, 0x3ea2850b3eab8c70U, 0xbeb91786bcd8b164U,
  0x3e58b164be8e346aU, 0xbe89b0b83e784b43U, 0xbe1076433ebb595fU, 0xbb9076433d876edfU,
  0x3e4b264e3e02eb2dU, 0xbe9bbf803c907643U, 0xbe076edf3c907643U, 0xbdd8b164be14f9f5U,
  0x3d58b1643e2708bdU, 0x3eeac02d3d907643U, 0x3e14f9f53da2850bU, 0x3e61b8c9bdb493d4U,
  0x3e80a9543edaf33eU, 0x3e391786bcb493d4U, 0xbe80a9543ef185b8U, 0x3eeac02dbdfccef5U,
  0xbcfccef5be3493d4U, 0x3cfccef53d3493d4U, 0xbc58b164be4b264eU, 0x3d58b1643da2850bU,
  0x3dfccef53cfccef5U, 0xbdbd9b38bc907643U, 0xbe02eb2dbe0bf291U, 0x3dab8c70U,
  0xbc9076433dbd9b38U, 0xbd876edf3e107643U, 0x3b907643bdeac02dU, 0xbd46a29c3e92b81cU,
  0xbd9076433dbd9b38U, 0x3ec21eeabe1e0159U, 0x3ed42db23d6ac02dU, 0xbd7ccef5be9bbf80U,
  0x3d6978fe3a927e1dU, 0xbd927e1dbd09563bU, 0x3d9deff73bb71da4U, 0xbd04c24abe015356U,
  0x3d496d68bd89563bU, 0x3da039f0bc5bbd2cU, 0x3d5bbd2cbd94c815U, 0x3d89563bbd2039f0U,
  0x3d7bc8c23d09563bU, 0x3d3bb1953dc96d68U, 0xbe115921bdd4df42U, 0xbda961d2bdf4ead8U,
  0x3db289b3bd3289b3U, 0x3c927e1dbd4e0159U, 0x3c802e59bd04c24aU, 0x3d371da4bd7bc8c2U,
  0xbd8278523b127e1dU, 0x3d89563b3dd04b51U, 0xbd8278523c802e59U, 0xbc24cde13dcbb760U,
  0x3d002e593d89563bU, 0x3d5bbd2cbdc96d68U, 0xbd404586bdd7293bU, 0xbe09563bbd60511cU,
  0xbc9ba5ffbd6e0cefU, 0xbdc04586be015356U, 0x3c24cde1U, 0x3c927e1d3d3bb195U,
  0xbdbbb195be103425U, 0xbb927e1dbc927e1dU, 0x3c127e1d3dc7236fU, 0xbd1ba5ff3d64e50dU,
  0xbd4e0159bdb71da4U, 0xbd927e1dbc24cde1U, 0xbd927e1dbd870c43U, 0xbe070c43bd7bc8c2U,
  0xbdb4d3acbd89563bU, 0xbdf056e8bce4e50dU, 0x3df2a0e0be09563bU, 0x3b927e1dbc496d68U,
  0x3d84c24a3d6978feU, 0x3cc96d683dababcaU, 0xbbdbbd2cbe09563bU, 0x3d2039f03db71da4U,
  0xbce4e50d3dbbb195U, 0xbdfe12babdb71da4U, 0xbcf734d1bddbbd2cU, 0xbcd2954abdd4df42U,
  0x3bdbbd2c3d24cde1U, 0xbd84c24abdababcaU, 0xba927e1d3de4e50dU, 0xbdadf5c2bde978feU,
  0xbc5bbd2cbdf97ec9U, 0xbd09563b3de72f06U, 0xbd17120ebb927e1dU, 0xbdadf5c2bd927e1dU,
  0xbda039f0bdf4ead8U, 0xbd24cde1bd4e0159U, 0xbca4cde1bd94c815U, 0xbdb4d3acbd371da4U,
  0xbd17120e3da283e8U, 0xbb5bbd2c00000000U, 0x3b127e1dbca4cde1U, 0xbcc96d683db9679dU,
  0x3b8c1e243e2ac4bcU, 0x3e6811ec3e0c1e24U, 0x3e1da1e83e0c1e24U, 0xbd7534bfbe6c72ddU,
  0x3ddaef183f04747eU, 0x3e2ac4bc3eb15626U, 0xbcd22d36bebc4880U, 0xbc8c1e243e89edabU,
  0x3daf25adbee811ecU, 0x3e40a972bd7534bfU, 0xbda663cb3c0c1e24U, 0xbdb7e78fbcd22d36U,
  0xbdfdf6a1bd94e006U, 0x3caf25ad3c522d36U, 0x3eaf25adbe2ac4bcU, 0x3dc0a9723db7e78fU,
  0x3e496b5400000000U, 0x3d63b0fabd835c42U, 0xbdc0a972bc8c1e24U, 0x3c8c1e243dfdf6a1U,
  0x3d0c1e243d8c1e24U, 0xbdf534bfbdd22d36U, 0xbcd22d363e496b54U, 0x3cf534bfbdb7e78fU,
  0x3d2f25adbd2f25adU, 0x3e37e78fbb8c1e24U, 0x3e14e006bd835c42U, 0x3d2f25ad3de3b0faU,
  0xbdec72dd3c8c1e24U, 0x3ee3b0fa3e2663cbU, 0x3e70d3ce3e70d3ceU, 0xbe0c1e24be035c42U,
  0xbda663cbbd8c1e24U, 0xbdfdf6a13ec96b54U, 0xbe035c423e40a972U, 0xbe2202dabd2f25adU,
  0xbdb7e78fbd522d36U, 0xbe496b54bdfdf6a1U, 0xbe2ac4bc3d0c1e24U, 0x3cd22d363e2f25adU,
  0x3b8c1e24be89edabU, 0x3ec96b543d2f25adU, 0x3e522d363c0c1e24U, 0x3e8c1e24bdfdf6a1U,
  0x3dfdf6a13f0b05e8U, 0x3e107f15bc0c1e24U, 0xbe858cba3e812bc9U, 0x3e1da1e83e37e78fU,
  0xbde3b0fabe2202daU, 0xbe07bd333cd22d36U, 0xbdfdf6a1be14e006U, 0x3d9da1e83dc0a972U,
  0x3c522d36bdec72ddU, 0xbc522d36bdfdf6a1U, 0xbe40a972be9b7170U, 0xbe2ac4bc3cf534bfU,
  0x3e496b543ef995b0U, 0xbc8c1e24bddaef18U, 0xbd835c423d94e006U, 0x3daf25ad3ea663cbU,
  0xbd8c1e243e4dcc45U, 0x3ee18082be2ac4bcU, 0x3e8e4e9d3d40a972U, 0xbcf534bf3b8c1e24U,
  0x3d993864be30e657U, 0x3da7263ebdf25ddaU, 0x3d4e26a2bc5edda8U, 0xbd37dd44bdef94aeU,
  0xbd5edda8U, 0x3dc038c83d6a0257U, 0x3c324aedbdd0efceU, 0xbcb24aed3cf52706U,
  0xbd6f94ae3df52706U, 0xbdc301f3bd8e13b5U, 0xbdef94aebe08815dU, 0x3d05b8323d05b832U,
  0x3cea0257bc752706U, 0xbd05b832bcd3b8f9U, 0xbd27263e00000000U, 0xbe193864bd966f38U,
  0xbe018a70bd752706U, 0xbdf25ddabd8b4a89U, 0xbcb24aed3d0b4a89U, 0xbc85b832bda45d12U,
  0x3dacb896bdacb896U, 0xbd4301f3bd88815dU, 0xbd48944bbdfd8289U, 0xbdce26a2bdc5cb1fU,
  0x3cb24aedbde1a6d4U, 0x3bb24aed3d82ef06U, 0x3d10dce1bdd3b8f9U, 0xbbdedda8bd166f38U,
  0xbd594b51bd4e26a2U, 0xbdc038c83d88815dU, 0xbe166f38bdc301f3U, 0x3d05b832bdaf81c1U,
  0xbc1c018f3d10dce1U, 0xbdd3b8f9be09e5f3U, 0xbe071cc8bc85b832U, 0xbd27263ebddedda8U,
  0x3dc301f3bdd68225U, 0x3c9c018fbdf7f032U, 0xbcf527063d8025daU, 0xbcbd6f9c3cf52706U,
  0xbcdedda8bdd3b8f9U, 0x3d647000bde47000U, 0x3d6f94aebda193e7U, 0xbd4e26a2bc752706U,
  0x3df527063dcb5d76U, 0x3bdedda8bb324aedU, 0x3d9938643d9c018fU, 0xbca7263e3d27263eU,
  0x3bdedda8bddc147dU, 0x3da193e7bdc5cb1fU, 0x3c48944b3d37dd44U, 0x3d90dce13cdedda8U,
  0xbcd3b8f93d7ab95dU, 0x3c9c018f3db7dd44U, 0xbd324aed3dea0257U, 0xbd53b8f93d4e26a2U,
  0x3d5edda8bdce26a2U, 0xbcf527063d8025daU, 0xbd0025dabdea0257U, 0xbd8b4a893c85b832U,
  0xbda45d12bdb24aedU, 0x3c1c018f3c05b832U, 0xbca7263ebcd3b8f9U, 0xbe25c1a8be22f87dU,
  0x3e9ba6e8bdd440b1U, 0xbda9cd5a3e5b53eaU, 0xbe89f6d93c626723U, 0xbeb7f3ccU,
  0x3df08d95bf60a255U, 0xbdfeb407bee26723U, 0xbecd2d78bf181d4cU, 0xbe1ba6e8bc626723U,
  0xbe1ba6e83e77a0ceU, 0x3edb53ea3e866d3dU, 0xbd0d80763ce26723U, 0x3ca9cd5a3e9f3085U,
  0x3de267233e3f0706U, 0x3e0d80763e866d3dU, 0x3dd440b13de26723U, 0x3dd440b1be37f3ccU,
  0x3e77a0cebd29cd5aU, 0x3d8d80763e066d3dU, 0x3e89f6d9bce26723U, 0xbe0d8076bd0d8076U,
  0x3eb7f3cc3d9ba6e8U, 0x3ce267233e0d8076U, 0xbde26723be1ba6e8U, 0xbe3f0706bdf08d95U,
  0xbca9cd5a3edb53eaU, 0xbe37f3cc3ca9cd5aU, 0x3d0d80763d461a3fU, 0xbce26723bce26723U,
  0x3d6267233c626723U, 0x3d461a3f3d9ba6e8U, 0x3e82e3a0be0d8076U, 0x3e3f0706bd9ba6e8U,
  0x3d8d80763f1f3085U, 0x3e9f3085bdfeb407U, 0xbde26723bca9cd5aU, 0x3d626723U,
  0xbe0d80763e22ba21U, 0x3ebf0706be066d3dU, 0x3e89f6d93be26723U, 0xbe708d953e89f6d9U,
  0x3ce26723be9493afU, 0xbdd440b13ea2ba21U, 0xbeb7f3cc3ca9cd5aU, 0xbe8d8076beb7f3ccU,
  0xbe29cd5abf110a12U, 0x3e5440b13e1ba6e8U, 0x3e866d3dbe5b53eaU, 0xbe461a3f3dfeb407U,
  0xbdb7f3cc3ea2ba21U, 0x3e461a3fbe1493afU, 0x3d626723bd0d8076U, 0x3e981d4c3be26723U,
  0xbeb0e0933d29cd5aU, 0x3dc61a3fbe066d3dU, 0x3e066d3d3e9493afU, 0x3ce26723bde26723U,
  0xbd0d8076be89f6d9U, 0x3dd440b13ec9a3dbU, 0xbdd440b13df08d95U, 0x3df08d95be9493afU,
  0x3d7eb407be5440b1U, 0xbe910a123e1493afU, 0x3db7f3cc3d8d8076U, 0xbe1ba6e8bd8d8076U,
  0x3daf626b3f2e03a6U, 0x3d454eb83e29e758U, 0x3e9c33a7bd5b3b06U, 0xbd19761e3e4ac9ccU,
  0xbdaf626b3ef3e4ddU, 0x3df127533e454eb8U, 0x3e246c443f06475aU, 0x3e8bc26d3e9c33a7U,
  0xbd99761e3e6bac40U, 0x3ef95ff03e93fb0aU, 0x3baf626bbd454eb8U, 0x3df12753be8bc26dU,
  0x3e5b3b06be454eb8U, 0x3e13fb0a3eb79b08U, 0x3eaf626bbd19761eU, 0x3f113d813e3fd3a5U,
  0x3e0e7ff7be34dd7eU, 0x3eaf626b3f022b0bU, 0xbe19761e3d712753U, 0x3e913d81bdfc1d7aU,
  0x3cdb3b06U, 0x3e2f626bbe5044dfU, 0xbe19761ebe5044dfU, 0x3e13fb0abe96b894U,
  0x3e8bc26d3e0e7ff7U, 0x3d5b3b06be8389d0U, 0xbd8e7ff7bdf12753U, 0x3df127533f0389d0U,
  0x3ed302693e19761eU, 0x3f246c44be5044dfU, 0x3d99761e3f0389d0U, 0x3e34dd7e3e1ef131U,
  0x3e5044df3d2f626bU, 0xbc2f626bU, 0x3e66312c3ee8eeb6U, 0xbdc54eb8be1ef131U,
  0x3df127533c2f626bU, 0x3eb79b083e3a5892U, 0xbec2912f3dfc1d7aU, 0xbe29e758bc8389d0U,
  0x3ea46c44bee0b619U, 0x3f04e8953e913d81U, 0x3ec2912fbe13fb0aU, 0xbdfc1d7abde6312cU,
  0xbd8e7ff7be8389d0U, 0xbe4ac9ccbe0904e4U, 0x3da46c44be0904e4U, 0xbe80cc47bd0389d0U,
  0xbd2f626b3d0389d0U, 0x3e5044dfbec54eb8U, 0x3e8904e43edb3b06U, 0xbd99761ebd99761eU,
  0x3e2f626b3eb4dd7eU, 0x3d0389d03d19761eU, 0xbe13fb0abe8389d0U, 0x3dc54eb8bdba5892U,
  0xbd8389d0be86475aU, 0xbe60b6193c2f626bU, 0x3e454eb83baf626bU, 0x3daf626bbe0389d0U,
  0xbdfc1d7abe55bff2U, 0xbea1aebbbcdb3b06U, 0xbd8389d03ddb3b06U, 0xbebd161bbe246c44U,
  0x3ea5afd73d88c1e6U, 0xbe0e046f3f00de19U, 0xbe0e046f3dfc79a8U, 0x3d28511bbe71f497U,
  0x3f0620a2bc28511bU, 0xbe4d22d93e988980U, 0x3da8511bbecd22d9U, 0x3e5265623ec7e050U,
  0xbeb034e83e95e83cU, 0x3f25afd73f270079U, 0x3eea10ca3d7c79a8U, 0xbd9dcc093ea5afd7U,
  0xbddcea733e80de19U, 0x3eb034e83ee4ce41U, 0xbd5265623e80de19U, 0xbdb2d62d3ba8511bU,
  0xbe0e046fbe037f5dU, 0xbea8511b3e230e92U, 0x3e71f497bd28511bU, 0xbd1346f83e32d62dU,
  0xbca8511b3da8511bU, 0x3da8511b3ecfc41dU, 0x3e95e83cbdd26562U, 0x3e9b2ac5bcfc79a8U,
  0x3e429dc73cfc79a8U, 0x3e037f5dbe429dc7U, 0x3e037f5dbdd26562U, 0xbe08c1e63dd26562U,
  0x3d526562bd7c79a8U, 0x3e429dc7bd3d5b3eU, 0xbe1346f83e28511bU, 0xbd3d5b3e3e9b2ac5U,
  0x3e32d62d3e28511bU, 0x3e28511b3da8511bU, 0xbc7c79a8bc28511bU, 0xbecfc41d3c28511bU,
  0x3e676f853ea5afd7U, 0x3eb577713e90a5b3U, 0x3e676f853ee76f85U, 0xbe88c1e63e5cea73U,
  0x3d88c1e6bdf1f497U, 0x3d28511b3e7c79a8U, 0xbe80de19bca8511bU, 0xbea06d4ebe188980U,
  0xbe9346f8bea06d4eU, 0x3d7c79a83dc7e050U, 0x3e88c1e6bdf1f497U, 0xbead93a4bd676f85U,
  0x3e90a5b3bde76f85U, 0x3d526562bd1346f8U, 0xbba8511b3e4d22d9U, 0x3de76f85bc28511bU,
  0x3dc7e0503e9dcc09U, 0x3da8511b3e622cfcU, 0x3d7c79a83d526562U, 0x3e2d93a4bddcea73U,
  0xbdb2d62dbe32d62dU, 0xbd9346f83ca8511bU, 0x3ba8511b3e1dcc09U, 0x3d9346f8bd9dcc09U,
  0x3ba8511b3ed26562U, 0x3ba8511b3e90a5b3U, 0x3cfc79a83ecfc41dU, 0xbcfc79a83e230e92U,
  0xbcfd98f3bda910a2U, 0x3ed354cabcd354caU, 0xbdb3a1ac3e86b941U, 0xbc7d98f33ec37b3bU,
  0xbe095d843e78506eU, 0xbddde5d53e589d50U, 0x3e8170bc3da910a2U, 0xbca910a23f27be81U,
  0xbd9e7f98bdfd98f3U, 0x3e7d98f33e7d98f3U, 0x3cfd98f33d3e32b6U, 0x3d2910a23e632e5aU,
  0xbd7d98f3be8c01c6U, 0x3c7d98f33d13ee8eU, 0x3eabb4e5bc2910a2U, 0x3e33a1acbcd354caU,
  0xbcd354ca3db3a1acU, 0x3ef307e9bec0d6f9U, 0xbe4e0c45bde876dfU, 0x3e914a4b3dfd98f3U,
  0xbe6876df3e48c3c0U, 0x3ca910a23e9e7f98U, 0x3e2e59273d7d98f3U, 0xbcfd98f33eb3a1acU,
  0x3c2910a2bdb3a1acU, 0x3e5354ca3e2e5927U, 0x3e6dbf643cfd98f3U, 0x3d7d98f3bd6876dfU,
  0x3d9e7f98bea66c5fU, 0x3d5354ca3e93ee8eU, 0xbddde5d5bd93ee8eU, 0x3cd354cabc2910a2U,
  0x3c7d98f3bd93ee8eU, 0xbd2910a2be13ee8eU, 0xbe78506e3df307e9U, 0xbe38ea31be632e5aU,
  0xbcd354ca3d5354caU, 0x3dd354ca3d13ee8eU, 0xbd2910a2be095d84U, 0xbe5354cabe4e0c45U,
  0xbc7d98f3bec61f7eU, 0xbe3e32b6bc2910a2U, 0xbe78506ebe6876dfU, 0xbe9e7f98be13ee8eU,
  0xbe5de5d5bd5354caU, 0xbebe32b6be9bdb55U, 0x3cfd98f3bee08a17U, 0xbf0170bcbe6dbf64U,
  0x3d7d98f33e0ea609U, 0xbba910a2be589d50U, 0xbe2910a23e5354caU, 0xbd5354cabe4e0c45U,
  0x3e2910a23e437b3bU, 0xbe095d8400000000U, 0x3d9e7f983e5354caU, 0x3d2910a2be93ee8eU,
  0xbe93ee8ebeabb4e5U, 0xbd13ee8eU, 0xbe1e7f98be0ea609U, 0xbcfd98f3bcd354caU,
  0xbe4e0c45bd9e7f98U, 0xbe895d84be3e32b6U, 0xbd13ee8ebd5354caU, 0xbeb3a1ac3e5354caU,
  0xbed465413ef0fcbbU, 0x3e64bbd0bebbe36bU, 0x3ed87ae5be3be36bU, 0xbe75125fbcc40eb2U,
  0xbe64bbd03f1f4bf1U, 0x3f0ef5623f192b7bU, 0x3e8ef5623f02b477U, 0xbd02b4773ef0fcbbU,
  0xbd82b477bf3dee3dU, 0xbf482456bed87ae5U, 0xbed87ae53d02b477U, 0x3dd465413e02b477U,
  0xbf110034be930b06U, 0xbe82b477bc82b477U, 0x3e75125fbf504f9eU, 0xbea777383ee0a62dU,
  0xbef92803bec82456U, 0x3e1b364dbc02b477U, 0xbf5a85b7bc02b477U, 0xbe7d3da7be0adfbeU,
  0xbeb3b8243e0adfbeU, 0x3f81af0e3f29820aU, 0x3df5125fbf2d97aeU, 0xbf3be36b3eafa280U,
  0x3e9f4bf1be5c9089U, 0xbe0adfbebeab8cdcU, 0x3e2b8cdcbd440eb2U, 0xbdf5125fbdf5125fU,
  0xbf1d411fbed04f9eU, 0xbd64bbd03dd46541U, 0x3c82b4773c02b477U, 0xbf29820abf7b32d5U,
  0x3e5c9089bf08d4edU, 0xbeafa2803eafa280U, 0xbea361953ebff90fU, 0x3d02b477bd64bbd0U,
  0xbde4bbd0bf110034U, 0xbf64bbd03da36195U, 0xbe236195bf02b477U, 0x3d02b477becc39faU,
  0xbd82b477bdf5125fU, 0x3f00a9a5be64bbd0U, 0x3ea777383e2b8cdcU, 0x3e5c90893f35c2f5U,
  0x3e2361953f35c2f5U, 0x3eb3b824be8adfbeU, 0xbef928033ed46541U, 0x3ed04f9e3d930b06U,
  0xbcc40eb2bf7b32d5U, 0xbe9720aa3f00a9a5U, 0xbea77738bd236195U, 0x3da36195bd440eb2U,
  0xbc02b477be8ef562U, 0xbeab8cdcbc02b477U, 0xbd236195bf1d411fU, 0xbe86ca1bbdf5125fU,
  0xbed46541be1b364dU, 0xbe6ce718bf31ad52U, 0xbe64bbd03c02b477U, 0x3e6ce718bd02b477U,
  0x3ec824563f64bbd0U, 0x3eab8cdcbe7d3da7U, 0x3e9f4bf13f192b7bU, 0xbd236195bed46541U,
  0x3c0efdd53f0ddfd9U, 0x3d8efdd53e5204d1U, 0x3e25557e3e1375c4U, 0x3b8efdd53da0dd90U,
  0x3c0efdd53eb2bd4aU, 0x3e83d200bdb2bd4aU, 0xbcb2bd4a3e25557eU, 0xbda0dd903c8efdd5U,
  0x3d7a3c353ed8b8b7U, 0xbe4914f4be5f6c9dU, 0xbe25557ebda0dd90U, 0x3d20dd903e8a85e6U,
  0x3edaf4aebe83d200U, 0x3e567cc03de85c7aU, 0x3e5204d13e5204d1U, 0x3e8a85e6bcb2bd4aU,
  0x3e714c573eb2bd4aU, 0x3d449d053e8a85e6U, 0xbcfa3c35be8cc1deU, 0xbdf14c57be373539U,
  0x3d97edb23dd67cc0U, 0xbc0efdd5bddf6c9dU, 0xbd860df800000000U, 0x3ebde91fbdfa3c35U,
  0x3cb2bd4a3cd67cc0U, 0x3eb081533e7eb423U, 0x3edf6c9dbdc49d05U, 0x3dfa3c35be5af4aeU,
  0x3eac09643e714c57U, 0x3ed8b8b73ec914f4U, 0x3ebde91f3eb73539U, 0x3e8a85e6bdb2bd4aU,
  0xbdd67cc03e019609U, 0xbe373539bd0efdd5U, 0x3f0196093e4914f4U, 0xbe20dd903e75c446U,
  0xbcb2bd4a3dd67cc0U, 0xbe1375c43e32bd4aU, 0xbe685c7a3ea31987U, 0x3df14c573d32bd4aU,
  0x3e0a85e6bcd67cc0U, 0x3eb971303ed67cc0U, 0x3e0196093e019609U, 0x3dbbad283dfa3c35U,
  0x3d8efdd5be8a85e6U, 0x3ebde91f3e25557eU, 0x3e3735393eb73539U, 0x3d0efdd53d97edb2U,
  0xbde85c7a3ddf6c9dU, 0xbe1c65a1be32bd4aU, 0x3dc49d053dc49d05U, 0xbdf14c573d7a3c35U,
  0xbb8efdd53f0cc1deU, 0x3e2e455cbe8849efU, 0xbeac09643e6cd469U, 0x3e0efdd53ecd8ce2U,
  0x3eea987100000000U, 0xbd20dd90be4d8ce2U, 0xbeac0964bdd67cc0U, 0xbe1375c4be402516U,
  0xbea5557ebe4d8ce2U, 0xbd685c7a3d97edb2U, 0xbeb2bd4abeb08153U, 0xbdcd8ce2bf072bf3U,
  0xbe3a17d7bd281588U, 0x3eba17d73e341712U, 0xbe1c13ff3e16133aU, 0xbe16133a3ee71d9cU,
  0x3e2214c4bcc0189cU, 0x3dc0189c3d40189cU, 0x3da815883ed81bb0U, 0x3eb116b03e9c13ffU,
  0x3e2214c43d101275U, 0xbea515263dc0189cU, 0xbdcc1a263c901275U, 0x3d9c13ff3d8410ebU,
  0x3c9012753c901275U, 0xbebd183a3c40189cU, 0xbbc0189c3eb116b0U, 0x3e96133a3e641d39U,
  0x3ec0189c3e87114eU, 0x3ea214c43cf01ec3U, 0x3c9012753e2214c4U, 0xbd9c13ffbd581bb0U,
  0xbe521aeb3e5e1c74U, 0xbd40189c3e0a11b0U, 0x3e40189c3eae164dU, 0x3eba17d73f3e986bU,
  0xbc40189cbcc0189cU, 0x3ebd183a3ef61f88U, 0x3ef01ec3bd9c13ffU, 0x3e8d12133cc0189cU,
  0x3e1012753eae164dU, 0xbbc0189c3eab15ebU, 0x3e4619613eff20afU, 0x3df01ec33e521aebU,
  0xbdc0189cbe4c1a26U, 0xbe0410ebbd8410ebU, 0x3db41712bd9c13ffU, 0x3df01ec33da81588U,
  0xbcc0189c3d40189cU, 0xbe2815883da81588U, 0xbe0a11b0bd9c13ffU, 0xbcf01ec33e341712U,
  0x3bc0189cbe581bb0U, 0x3dd81bb0bd9c13ffU, 0xbeba17d7bd101275U, 0x3d8410ebbe2214c4U,
  0xbc9012753cf01ec3U, 0xbe3a17d7be40189cU, 0xbec61961be40189cU, 0xbe96133abdb41712U,
  0xbdc0189c3d101275U, 0x3e101275bdfc204dU, 0x3df01ec3bd901275U, 0xbc40189c3ec0189cU,
  0xbdc0189c3de41d39U, 0x3c40189c3cc0189cU, 0x3cf01ec33d8410ebU, 0xbde41d393e8410ebU,
  0x3e40189cbe8410ebU, 0xbdc0189cbd581bb0U, 0xbefc204d3cf01ec3U, 0xbeae164dbe9f1461U,
  0xbec919c3be341712U, 0xbcf01ec3bcc0189cU, 0xbe6a1dfebee71d9cU, 0xbe16133abcc0189cU,
  0x3e33f8723ee83851U, 0xbd8b54fd3eb11157U, 0xbe4b31473dff7126U, 0xbd50ff7c3c8b54fdU,
  0x3da28dd23e8586c8U, 0x3ed0ff7c3d7f7126U, 0x3bb9c6a73d683851U, 0x3ce838513eb9c6a7U,
  0x3e4b31473e886de3U, 0xbe228dd23d228dd2U, 0xbe79a2f0bd96f168U, 0x3e4563113e56cdb1U,
  0x3d8b54fdbce83851U, 0xbcb9c6a73e626a1cU, 0xbd50ff7c3e626a1cU, 0x3cb9c6a73e0586c8U,
  0x3eab43223d96f168U, 0xbde838513e33f872U, 0xbde838513d683851U, 0x3d8b54fdbe1cbf9dU,
  0x3ea574ed3e3f94dcU, 0x3ddc9be63da28dd2U, 0x3dc563113e3f94dcU, 0x3e1123323d7f7126U,
  0x3d96f168bc39c6a7U, 0x3eb111573e56cdb1U, 0x3e8b54fdbdff7126U, 0x3df3d4bbbe829fadU,
  0x3e33f8723ed3e696U, 0x3e4563113e940a4dU, 0x3ddc9be6bd228dd2U, 0xbcb9c6a73ddc9be6U,
  0x3ddc9be63e9cbf9dU, 0xbdc563113c8b54fdU, 0x3f38531abe9cbf9dU, 0x3e16f1683e4b3147U,
  0x3d6838513e0586c8U, 0xbd0b54fd3d96f168U, 0x3e6e06863e99d882U, 0x3e5c9be63dff7126U,
  0xbeb9c6a7be7f7126U, 0x3d39c6a700000000U, 0xbc39c6a73e112332U, 0x3e8e3c18be228dd2U,
  0x3dc563113da28dd2U, 0x3dff71263e912332U, 0x3e9123323ddc9be6U, 0x3e3f94dc3e886de3U,
  0x3cb9c6a73ed3e696U, 0x3d50ff7cbdc56311U, 0x3d0b54fdbef9a2f0U, 0xbe886de33e626a1cU,
  0x3d6838513f0e3c18U, 0x3ee838513e683851U, 0xbd228dd23e50ff7cU, 0x3ddc9be63e829fadU,
  0x3f086de3bdf3d4bbU, 0xbea85c07bdb9c6a7U, 0xbee55136bdc56311U, 0xbeae2a3dbe9fa6b8U,
  0xbe7f7126be8b54fdU, 0xbe4b31473df3d4bbU, 0xbdb9c6a7bebcadc2U, 0xbcb9c6a7be626a1cU,
  0x3f02dbf13f25e0b7U, 0x3c6bea433ebfae56U, 0x3cebea433dbfae56U, 0x3debea43bea2310eU,
  0xbe1ad1bc3e13726aU, 0x3f3a26d93e22310eU, 0xbda2310e3eb84f04U, 0xbdebea433e8c1318U,
  0x3d4e6cfb3e1ad1bcU, 0x3e470da93e299060U, 0xbd93726abdbfae56U, 0x3da2310e3dbfae56U,
  0x3e8c13183d30efb2U, 0x3e4e6cfb3e384f04U, 0x3ecabd523e299060U, 0xbe0c13183e3fae56U,
  0x3f3fae563f13726aU, 0x3ea2310ebec35dffU, 0xbe299060be734995U, 0x3db0efb2be972213U,
  0x3e9722133c6bea43U, 0x3e88636fbe8fc2c1U, 0x3c6bea43bd6bea43U, 0xbcb0efb23f01041dU,
  0x3ddd2b9fbcb0efb2U, 0x3f6a126e3ead4009U, 0x3ee0db483c6bea43U, 0xbcb0efb23f154a3eU,
  0x3dfaa8e73e81041dU, 0x3f3a26d93d30efb2U, 0x3e3fae56be0c1318U, 0x3e30efb2bebbfeadU,
  0xbddd2b9f3ed21ca4U, 0x3c6bea433e734995U, 0x3f1ca9903e734995U, 0xbcb0efb23ead4009U,
  0x3e81041d3e5d2b9fU, 0x3ee48af1bbebea43U, 0x3d30efb23ecabd52U, 0x3e2990603ec70da9U,
  0xbd6bea43bda2310eU, 0xbd6bea433e30efb2U, 0x3cebea433d30efb2U, 0x3e88636fbda2310eU,
